{
  "version": "1.0",
  "truncation": null,
  "padding": null,
  "added_tokens": [
    {
      "id": 0,
      "content": "<pad>",
      "single_word": false,
      "lstrip": false,
      "rstrip": false,
      "normalized": false,
      "special": true
    },
    {
      "id": 1,
      "content": "<bos>",
      "single_word": false,
      "lstrip": false,
      "rstrip": false,
      "normalized": false,
      "special": true
    },
    {
      "id": 2,
      "content": "<eos>",
      "single_word": false,
      "lstrip": false,
      "rstrip": false,
      "normalized": false,
      "special": true
    }
  ],
  "normalizer": null,
  "pre_tokenizer": {
    "type": "ByteLevel",
    "add_prefix_space": false,
    "trim_offsets": true,
    "use_regex": true
  },
  "post_processor": {
    "type": "ByteLevel",
    "add_prefix_space": true,
    "trim_offsets": false,
    "use_regex": true
  },
  "decoder": {
    "type": "ByteLevel",
    "add_prefix_space": true,
    "trim_offsets": true,
    "use_regex": true
  },
  "model": {
    "type": "BPE",
    "dropout": null,
    "unk_token": null,
    "continuing_subword_prefix": null,
    "end_of_word_suffix": null,
    "fuse_unk": false,
    "byte_fallback": false,
    "ignore_merges": false,
    "vocab": {
      "<pad>": 0,
      "<bos>": 1,
      "<eos>": 2,
      "!": 3,
      "\"": 4,
      "#": 5,
      "$": 6,
      "%": 7,
      "&": 8,
      "'": 9,
      "(": 10,
      ")": 11,
      "*": 12,
      "+": 13,
      ",": 14,
      "-": 15,
      ".": 16,
      "/": 17,
      "0": 18,
      "1": 19,
      "2": 20,
      "3": 21,
      "4": 22,
      "5": 23,
      "6": 24,
      "7": 25,
      "8": 26,
      "9": 27,
      ":": 28,
      ";": 29,
      "<": 30,
      "=": 31,
      ">": 32,
      "?": 33,
      "@": 34,
      "A": 35,
      "B": 36,
      "C": 37,
      "D": 38,
      "E": 39,
      "F": 40,
      "G": 41,
      "H": 42,
      "I": 43,
      "J": 44,
      "K": 45,
      "L": 46,
      "M": 47,
      "N": 48,
      "O": 49,
      "P": 50,
      "Q": 51,
      "R": 52,
      "S": 53,
      "T": 54,
      "U": 55,
      "V": 56,
      "W": 57,
      "X": 58,
      "Y": 59,
      "Z": 60,
      "[": 61,
      "\\": 62,
      "]": 63,
      "^": 64,
      "_": 65,
      "`": 66,
      "a": 67,
      "b": 68,
      "c": 69,
      "d": 70,
      "e": 71,
      "f": 72,
      "g": 73,
      "h": 74,
      "i": 75,
      "j": 76,
      "k": 77,
      "l": 78,
      "m": 79,
      "n": 80,
      "o": 81,
      "p": 82,
      "q": 83,
      "r": 84,
      "s": 85,
      "t": 86,
      "u": 87,
      "v": 88,
      "w": 89,
      "x": 90,
      "y": 91,
      "z": 92,
      "{": 93,
      "|": 94,
      "}": 95,
      "~": 96,
      "¡": 97,
      "¢": 98,
      "£": 99,
      "¤": 100,
      "¥": 101,
      "¦": 102,
      "§": 103,
      "¨": 104,
      "©": 105,
      "ª": 106,
      "«": 107,
      "¬": 108,
      "®": 109,
      "¯": 110,
      "°": 111,
      "±": 112,
      "²": 113,
      "³": 114,
      "´": 115,
      "µ": 116,
      "¶": 117,
      "·": 118,
      "¸": 119,
      "¹": 120,
      "º": 121,
      "»": 122,
      "¼": 123,
      "½": 124,
      "¾": 125,
      "¿": 126,
      "À": 127,
      "Á": 128,
      "Â": 129,
      "Ã": 130,
      "Ä": 131,
      "Å": 132,
      "Æ": 133,
      "Ç": 134,
      "È": 135,
      "É": 136,
      "Ê": 137,
      "Ë": 138,
      "Ì": 139,
      "Í": 140,
      "Î": 141,
      "Ï": 142,
      "Ð": 143,
      "Ñ": 144,
      "Ò": 145,
      "Ó": 146,
      "Ô": 147,
      "Õ": 148,
      "Ö": 149,
      "×": 150,
      "Ø": 151,
      "Ù": 152,
      "Ú": 153,
      "Û": 154,
      "Ü": 155,
      "Ý": 156,
      "Þ": 157,
      "ß": 158,
      "à": 159,
      "á": 160,
      "â": 161,
      "ã": 162,
      "ä": 163,
      "å": 164,
      "æ": 165,
      "ç": 166,
      "è": 167,
      "é": 168,
      "ê": 169,
      "ë": 170,
      "ì": 171,
      "í": 172,
      "î": 173,
      "ï": 174,
      "ð": 175,
      "ñ": 176,
      "ò": 177,
      "ó": 178,
      "ô": 179,
      "õ": 180,
      "ö": 181,
      "÷": 182,
      "ø": 183,
      "ù": 184,
      "ú": 185,
      "û": 186,
      "ü": 187,
      "ý": 188,
      "þ": 189,
      "ÿ": 190,
      "Ā": 191,
      "ā": 192,
      "Ă": 193,
      "ă": 194,
      "Ą": 195,
      "ą": 196,
      "Ć": 197,
      "ć": 198,
      "Ĉ": 199,
      "ĉ": 200,
      "Ċ": 201,
      "ċ": 202,
      "Č": 203,
      "č": 204,
      "Ď": 205,
      "ď": 206,
      "Đ": 207,
      "đ": 208,
      "Ē": 209,
      "ē": 210,
      "Ĕ": 211,
      "ĕ": 212,
      "Ė": 213,
      "ė": 214,
      "Ę": 215,
      "ę": 216,
      "Ě": 217,
      "ě": 218,
      "Ĝ": 219,
      "ĝ": 220,
      "Ğ": 221,
      "ğ": 222,
      "Ġ": 223,
      "ġ": 224,
      "Ģ": 225,
      "ģ": 226,
      "Ĥ": 227,
      "ĥ": 228,
      "Ħ": 229,
      "ħ": 230,
      "Ĩ": 231,
      "ĩ": 232,
      "Ī": 233,
      "ī": 234,
      "Ĭ": 235,
      "ĭ": 236,
      "Į": 237,
      "į": 238,
      "İ": 239,
      "ı": 240,
      "Ĳ": 241,
      "ĳ": 242,
      "Ĵ": 243,
      "ĵ": 244,
      "Ķ": 245,
      "ķ": 246,
      "ĸ": 247,
      "Ĺ": 248,
      "ĺ": 249,
      "Ļ": 250,
      "ļ": 251,
      "Ľ": 252,
      "ľ": 253,
      "Ŀ": 254,
      "ŀ": 255,
      "Ł": 256,
      "ł": 257,
      "Ń": 258,
      "á»": 259,
      "áº": 260,
      "ng": 261,
      "Ġt": 262,
      "Ġc": 263,
      "ĠÄ": 264,
      "nh": 265,
      "ĠÄĳ": 266,
      "Ãł": 267,
      "Æ°": 268,
      "Ġth": 269,
      "Ã¡": 270,
      "Ġv": 271,
      "Ġl": 272,
      "Ġh": 273,
      "Ġch": 274,
      "iá»": 275,
      "Ġm": 276,
      "Ġb": 277,
      "Ġk": 278,
      "Ġtr": 279,
      "Æ°á»": 280,
      "Ġnh": 281,
      "Ġs": 282,
      "áº¡": 283,
      "áº¿": 284,
      "Ã´": 285,
      "Ġn": 286,
      "Ġg": 287,
      "Ġkh": 288,
      "áº£": 289,
      "Ġd": 290,
      "Ãª": 291,
      "Ã³": 292,
      "á»Ļ": 293,
      "Ġng": 294,
      "áº¥": 295,
      "Ġp": 296,
      "Ġph": 297,
      "á»ĳ": 298,
      "iá»ĩ": 299,
      "Ã¡c": 300,
      "Ã¢": 301,
      "ĠT": 302,
      "Ãªn": 303,
      "Ã´ng": 304,
      "Ã¬": 305,
      "ĠÄĳá»": 306,
      "Ġvá»": 307,
      "ĠvÃł": 308,
      "Æ¡": 309,
      "á»§": 310,
      "áºŃ": 311,
      "áº§": 312,
      "Ġgi": 313,
      "ĠlÃł": 314,
      "uy": 315,
      "ÃŃ": 316,
      "Ġthá»": 317,
      "iáº¿": 318,
      "Ġq": 319,
      "Ġr": 320,
      "Ľi": 321,
      "Æ°á»Ŀ": 322,
      "Æ°á»£": 323,
      "áº¥t": 324,
      "Ġtá»": 325,
      "Ġx": 326,
      "ĠC": 327,
      "ĠN": 328,
      "ĠcÃ³": 329,
      "Ġcá»§": 330,
      "áº¡i": 331,
      "Ġcá»§a": 332,
      "Ġqu": 333,
      "Äĥ": 334,
      "Ãº": 335,
      "Ġhá»": 336,
      "ong": 337,
      "ĠcÃ¡c": 338,
      "an": 339,
      "áº¯": 340,
      "á»ĭ": 341,
      "Ã£": 342,
      "Ã¬nh": 343,
      "iá»ģ": 344,
      "á»¯": 345,
      "Æ°á»£c": 346,
      "á»±": 347,
      "ĠH": 348,
      "Ã¢n": 349,
      "ch": 350,
      "á»Ļt": 351,
      "á»¥": 352,
      "ĠÄĳÆ°á»£c": 353,
      "á»©": 354,
      "Ã²": 355,
      "ĠkhÃ´ng": 356,
      "ay": 357,
      "Ġcho": 358,
      "Ãły": 359,
      "Ã¹": 360,
      "ĠB": 361,
      "á»Ł": 362,
      "áº·": 363,
      "iá»ĩn": 364,
      "áº¡n": 365,
      "ĠÄĲ": 366,
      "ĠV": 367,
      "Ġtrong": 368,
      "Ġmá»Ļt": 369,
      "áº§n": 370,
      "iÃªn": 371,
      "inh": 372,
      "Ġvá»Ľi": 373,
      "Æ°á»Ľ": 374,
      "Æ°á»Ŀi": 375,
      "ao": 376,
      "ang": 377,
      "Ġ1": 378,
      "anh": 379,
      "Ġngh": 380,
      "iá»ģu": 381,
      "ĠM": 382,
      "in": 383,
      "Æ°Æ¡": 384,
      "iá»ĥ": 385,
      "á»¯ng": 386,
      "á»į": 387,
      "am": 388,
      "Ġ2": 389,
      "áº£i": 390,
      "ĠTh": 391,
      "Ãłng": 392,
      "Ãłnh": 393,
      "áº£n": 394,
      "ĠngÆ°á»Ŀi": 395,
      "Æ°á»Ŀng": 396,
      "á»ĩ": 397,
      "Æ°Æ¡ng": 398,
      "ai": 399,
      "ĠL": 400,
      "Ġnhá»¯ng": 401,
      "ĠS": 402,
      "Ãłn": 403,
      "ĠnhÆ°": 404,
      "on": 405,
      "áº§u": 406,
      "Ãłi": 407,
      "ĠÄĳá»Ļ": 408,
      "Ã¢y": 409,
      "Æ°á»Ľc": 410,
      "áº¿n": 411,
      "âĢ": 412,
      "á»ĵ": 413,
      "Å©": 414,
      "Ġthá»ĥ": 415,
      "Ġho": 416,
      "ung": 417,
      "ĠP": 418,
      "ĠÄĳá»ĥ": 419,
      "áºŃn": 420,
      "iáº¿t": 421,
      "á»ķ": 422,
      "Ã´i": 423,
      "á»Ń": 424,
      "ĠÄĳÃ£": 425,
      "uá»ĳ": 426,
      "Ġbáº¡n": 427,
      "Äĥng": 428,
      "ÃŃnh": 429,
      "Ã¹ng": 430,
      "áºŃt": 431,
      "áº½": 432,
      "Ŀi": 433,
      "áº©": 434,
      "au": 435,
      "áº¿t": 436,
      "Ã½": 437,
      "ĠK": 438,
      "Æ¡n": 439,
      "ĠnÃły": 440,
      "á»ī": 441,
      "ĠcÃ´ng": 442,
      "ĠTr": 443,
      "ĠCh": 444,
      "Ã©": 445,
      "Ġsá»ĳ": 446,
      "Ġtá»«": 447,
      "ĠÄĳáº¿n": 448,
      "Ġlá»": 449,
      "Ġmá»": 450,
      "á»ĳi": 451,
      "Ġsáº½": 452,
      "Ã¡n": 453,
      "Å©ng": 454,
      "iáº¿n": 455,
      "iá»ĩt": 456,
      "Ã¡t": 457,
      "Ġhá»į": 458,
      "Ġkhi": 459,
      "Ã¡i": 460,
      "ĠG": 461,
      "Ġgiá»": 462,
      "Ã¡ch": 463,
      "á»Ļi": 464,
      "ĠD": 465,
      "Ġdá»¥": 466,
      "Ġ(": 467,
      "ĠÄĳÃ³": 468,
      "Ġra": 469,
      "Äĥm": 470,
      "Ġvá»ģ": 471,
      "á»©c": 472,
      "Ġcáº£": 473,
      "áº±": 474,
      "ĠlÃłm": 475,
      "00": 476,
      "iá»ĩu": 477,
      "er": 478,
      "uyá»": 479,
      "Ã¡ng": 480,
      "Ġnhiá»ģu": 481,
      "ĠcÅ©ng": 482,
      "Ġá»Ł": 483,
      "áº¥y": 484,
      "em": 485,
      "áºŃp": 486,
      "ĠA": 487,
      "ĠmÃł": 488,
      "ĠvÃło": 489,
      "eo": 490,
      "..": 491,
      "iÃª": 492,
      "áº«": 493,
      "ĠNg": 494,
      "ĠtrÃªn": 495,
      "Ã¡o": 496,
      "Ġláº¡i": 497,
      "Ġtáº¡i": 498,
      "en": 499,
      "Ã²ng": 500,
      "Ġdá»¥ng": 501,
      "Ġthu": 502,
      "ĠhÃłng": 503,
      "ĠPh": 504,
      "ÃŃch": 505,
      "ĠÄĳá»ĭ": 506,
      "Ãºng": 507,
      "iá»ĩc": 508,
      "ĠnhÃł": 509,
      "Ġchá»ī": 510,
      "Ġ-": 511,
      "Ġnháº¥t": 512,
      "Ãło": 513,
      "áº£o": 514,
      "Ġsá»±": 515,
      "ĠÄĳáº§u": 516,
      "Ġ\"": 517,
      "áº¥p": 518,
      "áº·c": 519,
      "ĠnÃ³": 520,
      "Ġhiá»ĩn": 521,
      "áº¯c": 522,
      "Ġbá»ĭ": 523,
      "ĠQ": 524,
      "áº·t": 525,
      "ĠNh": 526,
      "Äĥn": 527,
      "Æ°á»£ng": 528,
      "Ã¢m": 529,
      "áº»": 530,
      "á»±c": 531,
      "ĠÄĳá»Ļng": 532,
      "20": 533,
      "ĠÄĳá»ĵ": 534,
      "Ä©": 535,
      "áº¹": 536,
      "á»ı": 537,
      "ĠthÃłnh": 538,
      "Ã¡nh": 539,
      "Ġviá»ĩc": 540,
      "Ã²n": 541,
      "áº±ng": 542,
      "Ã¢u": 543,
      "±c": 544,
      "ÄĲ": 545,
      "ĠthÃ¬": 546,
      "Æ¡i": 547,
      "Ã¡p": 548,
      "Ġpháº£i": 549,
      "áº¡o": 550,
      "uyÃªn": 551,
      "iá»ģn": 552,
      "ĠnÄĥm": 553,
      "Ġto": 554,
      "á»ĭch": 555,
      "iá»ĥm": 556,
      "ĥn": 557,
      "ĠâĢ": 558,
      "Ã´n": 559,
      "Ġ3": 560,
      "Ãºc": 561,
      "oáº¡i": 562,
      "£p": 563,
      "áº¯t": 564,
      "ĠngÃły": 565,
      "áº¡t": 566,
      "Ġy": 567,
      "áº©m": 568,
      "Ġhá»įc": 569,
      "Ġtiáº¿": 570,
      "ar": 571,
      "Ġ20": 572,
      "ĠhÆ¡n": 573,
      "ĠgiÃ¡": 574,
      "Ġhá»£p": 575,
      "Ã¡y": 576,
      "Ġdo": 577,
      "ĠnÆ°á»Ľc": 578,
      "á»Ļc": 579,
      "Ġsáº£n": 580,
      "áº«n": 581,
      "ģn": 582,
      "ĠchÃŃnh": 583,
      "áº¥n": 584,
      "uyá»ĩ": 585,
      "Ġtá»ĳ": 586,
      "ĠtÃ´i": 587,
      "Ġnghiá»ĩ": 588,
      "ĠÄĳá»ģ": 589,
      "ĠnÃªn": 590,
      "Ġráº¥t": 591,
      "Ġquan": 592,
      "áº£ng": 593,
      "ĠnhÃ¢n": 594,
      "áº¿u": 595,
      "Ġsá»Ń": 596,
      "Ġkho": 597,
      "ĠmÃ¬nh": 598,
      "ĠÄĳi": 599,
      "Ġthá»Ŀi": 600,
      "á»ĳng": 601,
      "Ġcao": 602,
      "Ġgia": 603,
      "ĠcÃ¡ch": 604,
      "ĠcÃ²n": 605,
      "Æ°a": 606,
      "ĠcÃ¹ng": 607,
      "á»¥c": 608,
      "á»©ng": 609,
      "uáº¥t": 610,
      "Æ°á»Ł": 611,
      "Ġthá»©": 612,
      "Ġtháº¿": 613,
      "ĠÄĳá»ĭnh": 614,
      "Æ°á»Łng": 615,
      "ĠÄĳá»ĵng": 616,
      "Ġthá»±c": 617,
      "Ġká»": 618,
      "ĠcÆ¡": 619,
      "iá»ĥn": 620,
      "Ġsinh": 621,
      "Ġtheo": 622,
      "áº¡nh": 623,
      "iá»ĥu": 624,
      "ĠtrÆ°á»Ŀng": 625,
      "ia": 626,
      "ĠhÃ¬nh": 627,
      "Ġmá»Ľi": 628,
      "ĠÄĳiá»ģu": 629,
      "Ġcon": 630,
      "á»įn": 631,
      "ĠthÃ´ng": 632,
      "Ġsau": 633,
      "Th": 634,
      "á»ķi": 635,
      "Ġdá»±": 636,
      "iÃªu": 637,
      "or": 638,
      "ĠKh": 639,
      "ħn": 640,
      "ĠNam": 641,
      "ĠchÃºng": 642,
      "áº¡ng": 643,
      "ua": 644,
      "im": 645,
      "Ġlu": 646,
      "Ġpháº©m": 647,
      "ĠnÄĥng": 648,
      "ĠkhÃ¡ch": 649,
      "al": 650,
      "ĠÄĳang": 651,
      "Ġtin": 652,
      "á»£": 653,
      "ĠlÆ°á»£ng": 654,
      "áº¥u": 655,
      "it": 656,
      "Ġcáº§n": 657,
      "ĠViá»ĩt": 658,
      "ĠkhÃ¡c": 659,
      "Ġta": 660,
      "ĠâĢĵ": 661,
      "es": 662,
      "ĠtrÃ¬nh": 663,
      "ĠnhÆ°ng": 664,
      "á»ĩnh": 665,
      "et": 666,
      "ĠviÃªn": 667,
      "Ġqua": 668,
      "ĠlÃªn": 669,
      "áº£m": 670,
      "á»ĳc": 671,
      "Ġcáº¥p": 672,
      "Ġlá»Ľ": 673,
      "ĠÄĳÃ¢y": 674,
      "uyá»ģn": 675,
      "áº¯n": 676,
      "Ġcháº¥t": 677,
      "ĠlÃ½": 678,
      "ĠphÃ¡t": 679,
      "uá»ĳc": 680,
      "á»«": 681,
      "Ġbiáº¿t": 682,
      "Ãºp": 683,
      "ĠmÃ¡y": 684,
      "uyá»ĩn": 685,
      "ĠnÃło": 686,
      "ĠnÃ³i": 687,
      "Ġvá»¥": 688,
      "ĠhÃłnh": 689,
      "ĠnháºŃn": 690,
      "áºŃy": 691,
      "Ġquy": 692,
      "Ġxuáº¥t": 693,
      "á»ĵi": 694,
      "ĠÄĳiá»ĥm": 695,
      "Ã³a": 696,
      "ĠtoÃłn": 697,
      "Ã³ng": 698,
      "ĠR": 699,
      "Ãºt": 700,
      "Ġgian": 701,
      "Ġtá»±": 702,
      "Ġthiáº¿t": 703,
      "at": 704,
      "Ġloáº¡i": 705,
      "Ġ5": 706,
      "ĠtrÆ°á»Ľc": 707,
      "Ã¨": 708,
      "Ġ4": 709,
      "Ãªm": 710,
      "Ġmáº·t": 711,
      "Ġkáº¿t": 712,
      "á»įi": 713,
      "Ġnghiá»ĩp": 714,
      "ĠgiÃºp": 715,
      "ĠvÃ¬": 716,
      "Ġtá»ĳt": 717,
      "Ġtu": 718,
      "ĠX": 719,
      "Ġtiáº¿p": 720,
      "Ãªu": 721,
      "Ġbáº£o": 722,
      "á»ĵng": 723,
      "á»¯a": 724,
      "Ġhay": 725,
      "áº¡ch": 726,
      "Ġtáº¡o": 727,
      "á»Ĺ": 728,
      "oÃłi": 729,
      "Ġbá»Ļ": 730,
      "ĠÄĳá»ĳi": 731,
      "om": 732,
      "Ġtáº¿": 733,
      "Ġtháº¥y": 734,
      "Æ°á»Ľng": 735,
      "Ġ0": 736,
      "ĠtÃ¡c": 737,
      "Ġhiá»ĩu": 738,
      "áº¯ng": 739,
      "Ġvá»ĭ": 740,
      "ĠgÃ¬": 741,
      "Ġanh": 742,
      "Ġthá»ĭ": 743,
      "Ġbáº±ng": 744,
      "Ġcáº§u": 745,
      "âĢ¦": 746,
      "ĠtÆ°": 747,
      "áº£nh": 748,
      "Ġdá»ĭch": 749,
      "ĠtÃ¢m": 750,
      "ĠtÃŃnh": 751,
      "Ġpháº§n": 752,
      "ĠÃ½": 753,
      "Ġquáº£": 754,
      "Tr": 755,
      "Ġchá»§": 756,
      "ĠdÃ¢n": 757,
      "áº¡c": 758,
      "ĠtÃ¬nh": 759,
      "Ġhá»Ļi": 760,
      "Ġtiá»ģn": 761,
      "ĠQu": 762,
      "á»Ńa": 763,
      "Ġkinh": 764,
      "uá»ĳn": 765,
      "Ġem": 766,
      "Ch": 767,
      "ĠthÆ°á»Ŀng": 768,
      "Ġtá»ķ": 769,
      "Ġhoáº·c": 770,
      "Ġnay": 771,
      "ĠÄĥn": 772,
      "ĠGi": 773,
      "Ġbáº£n": 774,
      "...": 775,
      "uá»Ļc": 776,
      "ĠnhiÃªn": 777,
      "Æ°u": 778,
      "ĠphÃ²ng": 779,
      "Ġchá»įn": 780,
      "ĠphÃŃ": 781,
      "ĠdÃ¹ng": 782,
      "Ġlá»Ľn": 783,
      "ĠÄĳÆ°á»Ŀng": 784,
      "Ġhá»ĩ": 785,
      "Ġgiáº£i": 786,
      "áº¹p": 787,
      "Ġxe": 788,
      "ĠÄĳo": 789,
      "Ġbá»ĩnh": 790,
      "el": 791,
      "áº©n": 792,
      "uyá»ĥn": 793,
      "á»Ļng": 794,
      "Ġtá»Ľi": 795,
      "Ġthá»©c": 796,
      "á»įng": 797,
      "iá»ħn": 798,
      "ĠF": 799,
      "Ġhá»ĵ": 800,
      "Ġgiá»Ľi": 801,
      "Ġcáº£m": 802,
      "ĠÃ´ng": 803,
      "Ġmang": 804,
      "á»Łi": 805,
      "ic": 806,
      "ĠI": 807,
      "Ġ201": 808,
      "ĠÄĳiá»ĩn": 809,
      "Ã¬m": 810,
      "as": 811,
      "ĠÃ": 812,
      "ĠquÃ¡": 813,
      "Ã³c": 814,
      "ĠphÃ¡p": 815,
      "Ġkáº¿": 816,
      "Ġan": 817,
      "Ġtrá»ĭ": 818,
      "Ġváº«n": 819,
      "ĠÄĳáº¡i": 820,
      "Æ°ng": 821,
      "Ġkhu": 822,
      "Ġsá»ĳng": 823,
      "ĠtÄĥng": 824,
      "ĠváºŃy": 825,
      "Ã¡m": 826,
      "áº§m": 827,
      "Ġtrang": 828,
      "ĠyÃªu": 829,
      "Ġtriá»ĥn": 830,
      "Ġchá»©c": 831,
      "áº³": 832,
      "Ġhai": 833,
      "Ġáº£nh": 834,
      "«a": 835,
      "á»įc": 836,
      "Ġtrá»įng": 837,
      "ac": 838,
      "Ġgiá»¯": 839,
      "ĠÄĳáº¹p": 840,
      "ĠcÃ¡i": 841,
      "ĠdÆ°á»": 842,
      "ĠtÃłi": 843,
      "á»Ľ": 844,
      "Ãµ": 845,
      "21": 846,
      "ĠU": 847,
      "ĠÄĳá»ķ": 848,
      "Ġ6": 849,
      "Ġmuá»ĳn": 850,
      "Ġtay": 851,
      "ĠbÃłi": 852,
      "ĠthÃ¡ng": 853,
      "á»Ŀ": 854,
      "ĠtáºŃp": 855,
      "Ġdoanh": 856,
      "Ġthá»§": 857,
      "iá»ĩm": 858,
      "Ġbiá»ĩt": 859,
      "ĠchÆ¡i": 860,
      "201": 861,
      "ĠE": 862,
      "ĠHo": 863,
      "ĠthÃªm": 864,
      "ĠQuá»ĳc": 865,
      "ĠtiÃªu": 866,
      "ĠcÃ´": 867,
      "hi": 868,
      "ĠhÃ³a": 869,
      "ĠthÆ°Æ¡ng": 870,
      "Ġtrá»Ł": 871,
      "ĠliÃªn": 872,
      "id": 873,
      "Ġcá»©": 874,
      "Ġthá»ĳng": 875,
      "ro": 876,
      "Ġbao": 877,
      "uá»ĳng": 878,
      "is": 879,
      "Ġhoáº¡t": 880,
      "Ng": 881,
      "ĠÄĳá»ģu": 882,
      "ĠbÃªn": 883,
      "á»ħ": 884,
      "Ġty": 885,
      "Ġchu": 886,
      "Nh": 887,
      "ĠhoÃłn": 888,
      "Ġnhau": 889,
      "Ġláº§n": 890,
      "á»ĵn": 891,
      "ĠtÃ¬m": 892,
      "ĠnghÄ©": 893,
      "Ġlá»±c": 894,
      "á»¹": 895,
      "Ġso": 896,
      "le": 897,
      "Ġcuá»Ļc": 898,
      "áº§y": 899,
      "áºŃu": 900,
      "ĠÄĳÆ¡n": 901,
      "Ġmua": 902,
      "ĠtrÃŃ": 903,
      "Ġsao": 904,
      "ĠbÃ¡n": 905,
      "ĠphÆ°Æ¡ng": 906,
      "Ġá»©ng": 907,
      "áº¡m": 908,
      "áº³ng": 909,
      "Ġliá»ĩu": 910,
      "Ġráº±ng": 911,
      "á»Ŀi": 912,
      "iáº¿u": 913,
      "Ġváº¥n": 914,
      "ĠW": 915,
      "Ġda": 916,
      "ĠÃ¡n": 917,
      "Ġdáº«n": 918,
      "ĠÄĳá»ĭa": 919,
      "ĠÄĳá»ķi": 920,
      "Ã¬n": 921,
      "áº¯m": 922,
      "Ġrá»ĵi": 923,
      "Ġgiao": 924,
      "ĠthÃ¢n": 925,
      "á»±a": 926,
      "Ġtiáº¿ng": 927,
      "Ġ10": 928,
      "Ġ7": 929,
      "Ġtrung": 930,
      "Ġbáº¥t": 931,
      "Ġchá»ĭ": 932,
      "ing": 933,
      "Ã©t": 934,
      "uyáº¿n": 935,
      "Ġtá»¥": 936,
      "ĠTrung": 937,
      "Ġgiá»Ŀ": 938,
      "Ġcháº¿": 939,
      "Ĺi": 940,
      "ĠtÃŃch": 941,
      "ol": 942,
      "ĠbÃ¡o": 943,
      "Ġtá»ī": 944,
      "ĠsÃ¡ng": 945,
      "Ã©p": 946,
      "Ġquá»ĳc": 947,
      "ĠHÃł": 948,
      "ĠÄĳÃ¡nh": 949,
      "000": 950,
      "Ġlo": 951,
      "áº¥m": 952,
      "Ġtham": 953,
      "áº±m": 954,
      "Ġsá»Ł": 955,
      "ĠhÃ£": 956,
      "Ġsá»©c": 957,
      "ĠluÃ´n": 958,
      "Ġtráº»": 959,
      "ĠchuyÃªn": 960,
      "ĠCÃ´ng": 961,
      "ÃŃn": 962,
      "Ġvá»«a": 963,
      "áº¯p": 964,
      "ıi": 965,
      "ĠngoÃłi": 966,
      "Ġxem": 967,
      "Ġ8": 968,
      "ĠÄĳáº·t": 969,
      "ĠcÃ¡": 970,
      "ĠthÃŃch": 971,
      "ĠÄĳáº·c": 972,
      "Ġgiáº£m": 973,
      "Ġmáº¯t": 974,
      "Ġchuyá»ĥn": 975,
      "ad": 976,
      "Ġnhá»ı": 977,
      "ĠchÆ°a": 978,
      "£i": 979,
      "Ġnáº¿u": 980,
      "Ġkhá»ı": 981,
      "Ġcung": 982,
      "Ġmá»įi": 983,
      "á»ģ": 984,
      "ĠkhÃ³": 985,
      "un": 986,
      "Ġchi": 987,
      "Ġmáº¡nh": 988,
      "ot": 989,
      "ĠvÄĥn": 990,
      "eb": 991,
      "ĠváºŃt": 992,
      "Ġ|": 993,
      "á»Ľi": 994,
      "Ġdá»ħ": 995,
      "ĠlÃºc": 996,
      "ĠY": 997,
      "us": 998,
      "Ġw": 999,
      "ĠÄĳáº¥t": 1000,
      "ĠmÃłu": 1001,
      "Ġbiáº¿n": 1002,
      "Ġká»³": 1003,
      "Ġbáº¯t": 1004,
      "áº«u": 1005,
      "Ġthi": 1006,
      "iÃªm": 1007,
      "Ã²a": 1008,
      "Ġnghá»ĩ": 1009,
      "Ġtrá»£": 1010,
      "ĠhÆ°á»Ľng": 1011,
      "Ġnhanh": 1012,
      "Ġtuá»ķi": 1013,
      "NG": 1014,
      "Ġtiáº¿t": 1015,
      "Ġquyáº¿t": 1016,
      "ĠxÃ£": 1017,
      "Ġngay": 1018,
      "ĠÄĳÃ¡": 1019,
      "Ġlá»ĭch": 1020,
      "áº·p": 1021,
      "Ġná»Ļi": 1022,
      "ĠO": 1023,
      "Ġdá»±ng": 1024,
      "ed": 1025,
      "th": 1026,
      "á»«ng": 1027,
      "Ã´m": 1028,
      "ĠphÃ¢n": 1029,
      "áº·ng": 1030,
      "Ġvi": 1031,
      "ĠbÃ¬nh": 1032,
      "uá»ĳi": 1033,
      "Ġnghiá»ĩm": 1034,
      "Ġchiáº¿": 1035,
      "ĠnÆ¡i": 1036,
      "il": 1037,
      "ag": 1038,
      "ĠnhÃ¬n": 1039,
      "Ġtá»īnh": 1040,
      "á»ĥ": 1041,
      "Ġtá»¥c": 1042,
      "Ġ9": 1043,
      "Ã£i": 1044,
      "uá»ĵn": 1045,
      "Ġphá»¥c": 1046,
      "ine": 1047,
      "Ġháº¿t": 1048,
      "Ġkhiáº¿n": 1049,
      "ame": 1050,
      "Ġphá»ĳ": 1051,
      "ĠvÃ´": 1052,
      "ÃŃt": 1053,
      "Ġtrá»±c": 1054,
      "ĠbÃ³ng": 1055,
      "ĠAnh": 1056,
      "Ġphá»¥": 1057,
      "Ġgáº§n": 1058,
      "Ġtá»Ń": 1059,
      "ĠtiÃªn": 1060,
      "ĠxÃ¢y": 1061,
      "ĠthuáºŃt": 1062,
      "ĠÄĳÃ¬nh": 1063,
      "ĠgÃ¢y": 1064,
      "ĠtháºŃt": 1065,
      "Ġbá»Łi": 1066,
      "Ġhá»Ļ": 1067,
      "ĠláºŃp": 1068,
      "ĠbÃłn": 1069,
      "Ġtá»«ng": 1070,
      "ĠÄĳáº¡o": 1071,
      "ur": 1072,
      ").": 1073,
      "ĠÄĳá»Ļi": 1074,
      "Ph": 1075,
      "Ġthay": 1076,
      "Ġchiáº¿n": 1077,
      "ĠsÃ¡ch": 1078,
      "Ġlá»£i": 1079,
      "ĠtÆ°á»£ng": 1080,
      "Ġbá»ı": 1081,
      "Ġmáº¹": 1082,
      "áº¡y": 1083,
      "ap": 1084,
      "Ġvá»±c": 1085,
      "Ġchá»©ng": 1086,
      "ĠÄĳÆ°a": 1087,
      "op": 1088,
      "tr": 1089,
      "Ġlá»Ŀi": 1090,
      "Ġthanh": 1091,
      "Ġdu": 1092,
      "ĠÄĳá»§": 1093,
      "uyá»ħn": 1094,
      "ĠNá»Ļi": 1095,
      "Ġná»¯": 1096,
      "Ġhiá»ĥu": 1097,
      "Ġná»¯a": 1098,
      "ĠbÃ©": 1099,
      "Ġdiá»ĩn": 1100,
      "Ġkiáº¿n": 1101,
      "Ġvá»ĩ": 1102,
      "Ġviáº¿t": 1103,
      "ĠsÄ©": 1104,
      "áº£y": 1105,
      "¯u": 1106,
      "Ġmá»Ĺi": 1107,
      "Ġcá»ķ": 1108,
      "ĠnguyÃªn": 1109,
      "¡ng": 1110,
      "Ġtruyá»ģn": 1111,
      "Ġf": 1112,
      "ĠMá»¹": 1113,
      "Ġcá»Ńa": 1114,
      "Ġmá»©c": 1115,
      "ter": 1116,
      "Ġtinh": 1117,
      "Ġtriá»ĩu": 1118,
      "Ġtáº¥t": 1119,
      "ĠlÃ²ng": 1120,
      "Ã¹a": 1121,
      "ĠJ": 1122,
      "Ġsáº¯c": 1123,
      "uyá»ĩt": 1124,
      "iÃªng": 1125,
      "á»ģn": 1126,
      "á»ĳn": 1127,
      "Ġlá»±a": 1128,
      "á»ĵm": 1129,
      "Ġdiá»ħn": 1130,
      "Ġkhai": 1131,
      "Ġkhoáº£ng": 1132,
      "Ä©nh": 1133,
      "Ġquyá»ģn": 1134,
      "Æ°á»£t": 1135,
      "ĠdÆ°á»Ľi": 1136,
      "oo": 1137,
      "Ġ19": 1138,
      "Ġtiáº¿n": 1139,
      "ĠÄĳá»©": 1140,
      "ĠdÃłi": 1141,
      "ĠnháºŃp": 1142,
      "Ġcáº£nh": 1143,
      "ĠtÃªn": 1144,
      "\".": 1145,
      "Ġkiá»ĩn": 1146,
      "ĠsÃ¡t": 1147,
      "Ġthuá»Ļc": 1148,
      "Ġhoa": 1149,
      "Ġhá»Ĺ": 1150,
      "ĠtÆ°Æ¡ng": 1151,
      "ui": 1152,
      "Ġchuáº©n": 1153,
      "Ã¡u": 1154,
      "Ġchá»ĳng": 1155,
      "10": 1156,
      "ĠÄĳáº¥u": 1157,
      "Ġphong": 1158,
      "Ġtá»·": 1159,
      "Ã³n": 1160,
      "Ġná»ķi": 1161,
      "Ġgiá»¯a": 1162,
      "Ġhá»¯u": 1163,
      "os": 1164,
      "ĠAn": 1165,
      "Ġmá»¥c": 1166,
      "Ġtho": 1167,
      "ĠÄĳáº£m": 1168,
      "Ġgá»ĵm": 1169,
      "ĠNguyá»ħn": 1170,
      "),": 1171,
      "ĠkhÃŃ": 1172,
      "ĠxÃ¡c": 1173,
      "Ġcá»©u": 1174,
      "ĠgiÃ¡o": 1175,
      "áº¿p": 1176,
      "Ġchiáº¿c": 1177,
      "Ġháº¡n": 1178,
      "uyáº¿t": 1179,
      "Ġhá»ıi": 1180,
      "iáº¿m": 1181,
      "ĠtÃŃn": 1182,
      "Kh": 1183,
      "Ġin": 1184,
      "Ġchuyá»ĩn": 1185,
      "Äĳ": 1186,
      "ĠÄĳa": 1187,
      "ĠcÃ¢u": 1188,
      "Ġkháº£": 1189,
      "Ġ,": 1190,
      "oi": 1191,
      "ĠchÃ¢n": 1192,
      "ĠcÃ¢y": 1193,
      "Ġai": 1194,
      "ĠÃ¡p": 1195,
      "ĠÄĳáº§y": 1196,
      "ĠÄĳÃºng": 1197,
      "Ġtra": 1198,
      "Ġyáº¿u": 1199,
      "ĠÄĳá»Ŀi": 1200,
      "ĠchÃŃ": 1201,
      "Ġquáº£n": 1202,
      "Ġchung": 1203,
      "Ġmá»Ł": 1204,
      "Ġcá»±c": 1205,
      "ĠgÃ³": 1206,
      "ĠcÃłng": 1207,
      "Ġgáº·p": 1208,
      "22": 1209,
      "Ġkiá»ĥm": 1210,
      "ĠlÃ£": 1211,
      "Ġnhu": 1212,
      "ĠphÃ¹": 1213,
      "Ġban": 1214,
      "á»ķng": 1215,
      "Ġáº¥y": 1216,
      "19": 1217,
      "Ġminh": 1218,
      "Ġká»¹": 1219,
      "Ãłm": 1220,
      "Ġtá»ĳi": 1221,
      "ĠTrong": 1222,
      "Ġmáº«u": 1223,
      "06": 1224,
      "ĠCÃ¡c": 1225,
      "Ġ12": 1226,
      "ĠBÃ¬nh": 1227,
      "Ãłu": 1228,
      "Ġcáº¡nh": 1229,
      "Ġgá»įi": 1230,
      "Ġcá»ĳ": 1231,
      "Ġ.": 1232,
      "Ġthuá»ĳc": 1233,
      "Ġmáº¥t": 1234,
      "ĠlÆ°u": 1235,
      "ĠrÃµ": 1236,
      "ĠnghÄ©a": 1237,
      "Ġchia": 1238,
      "ĠÃŃt": 1239,
      "ĠTP": 1240,
      "ĠkÃ½": 1241,
      "ĠhÆ°á»Łng": 1242,
      "Ġnhiá»ĩm": 1243,
      "Ã¢ng": 1244,
      "Æ°Æ¡i": 1245,
      "įng": 1246,
      "Ġdung": 1247,
      "2021": 1248,
      "ĠBá»Ļ": 1249,
      "ĠÄĳáº¡t": 1250,
      "áºŃm": 1251,
      "ent": 1252,
      "ĠtráºŃn": 1253,
      "Ġmáº¡ng": 1254,
      "ĠbÃł": 1255,
      "ĠcÄĥn": 1256,
      "ĠquÃ½": 1257,
      "ĠVÄĥn": 1258,
      "ĠhÃ£y": 1259,
      "Ġsang": 1260,
      "Ġtá»©": 1261,
      "Ġláº¥y": 1262,
      "ĠcÃ¡o": 1263,
      "ion": 1264,
      "ĠMinh": 1265,
      "Ġrá»Ļng": 1266,
      "Ġcá»¥": 1267,
      "Ġdáº¡ng": 1268,
      "ph": 1269,
      "ĠNáº¿u": 1270,
      "Ã³m": 1271,
      "Ġbu": 1272,
      "ĠváºŃn": 1273,
      "Ġtiá»ĩn": 1274,
      "áº©u": 1275,
      "Ġtranh": 1276,
      "ĠkhÃ¡": 1277,
      "âĢĵ": 1278,
      "ow": 1279,
      "ĠthÆ°": 1280,
      "ĠkÃ©": 1281,
      "ĠÄĳÄĥng": 1282,
      "Ġdanh": 1283,
      "Ġgiáº£": 1284,
      "ĠtrÃ²": 1285,
      "Ġnguá»ĵn": 1286,
      "12": 1287,
      "ĠdÃ¹": 1288,
      "Ġ15": 1289,
      "com": 1290,
      "ĠÃ¢m": 1291,
      "Ġca": 1292,
      "Ġkhá»ıe": 1293,
      "um": 1294,
      "Ġgame": 1295,
      "ĠÄĳá»Ļc": 1296,
      "Ġthoáº¡i": 1297,
      "ĠngÃłnh": 1298,
      "Ġtráº£": 1299,
      "Ġbiá»ĥu": 1300,
      "ĠtÆ°á»Łng": 1301,
      "ĠdÆ°á»¡ng": 1302,
      "Ġbá»ĳ": 1303,
      "ĠtrÆ°á»Łng": 1304,
      "á»Ĺi": 1305,
      "11": 1306,
      "Ġ:": 1307,
      "Ġtá»ķng": 1308,
      "Ã¨o": 1309,
      "ĠNgh": 1310,
      "Ġchá»©": 1311,
      "Ġnam": 1312,
      "Ġxuá»ĳng": 1313,
      "Ġvui": 1314,
      "Ġdi": 1315,
      "áºµ": 1316,
      "âĢĿ": 1317,
      "Ġtráº¡ng": 1318,
      "ĠvÃ¹ng": 1319,
      "Ġtháº§n": 1320,
      "line": 1321,
      "ĠÄĳÃ¡ng": 1322,
      "ĠriÃªng": 1323,
      "áº¡p": 1324,
      "ĠÄĳoÃłn": 1325,
      "re": 1326,
      "ou": 1327,
      "Ġba": 1328,
      "Ġlá»ĩ": 1329,
      "ĠphÃŃa": 1330,
      "ĠchÃº": 1331,
      "ĠÄĲáº¡i": 1332,
      "one": 1333,
      "Ġcháº¯c": 1334,
      "iá»ĩp": 1335,
      "Ġcuá»ĳi": 1336,
      "Ġtuyáº¿n": 1337,
      "Ġtá»©c": 1338,
      "ĠTuy": 1339,
      "ĠnhÃ©": 1340,
      "áº©y": 1341,
      "ĠlÃ¢u": 1342,
      "Ġxá»Ń": 1343,
      "ie": 1344,
      "ĠtoÃ¡n": 1345,
      "ĠdÃ²ng": 1346,
      "Ġuá»ĳng": 1347,
      "Ġnghe": 1348,
      "ĠmÃ´i": 1349,
      "iv": 1350,
      "ĠvÃłng": 1351,
      "ĳng": 1352,
      "Ġweb": 1353,
      "Ãºi": 1354,
      "ĠÄĳÃ¢u": 1355,
      "ĠÆ°u": 1356,
      "ĠThanh": 1357,
      "Ġkhoa": 1358,
      "Ġbay": 1359,
      "Ġchá»ĭu": 1360,
      "Ġkhoáº£n": 1361,
      "ig": 1362,
      "NH": 1363,
      "ĠchÆ°Æ¡ng": 1364,
      "Ġlá»Ľp": 1365,
      "Ġphim": 1366,
      "ĠmÃ³n": 1367,
      "Ġgh": 1368,
      "Ġo": 1369,
      "ĠTH": 1370,
      "ĠbÆ°á»Ľc": 1371,
      "Ġ11": 1372,
      "Ġviá»ĩn": 1373,
      "Trong": 1374,
      "Ġdá»¥c": 1375,
      "ĠdÃłnh": 1376,
      "\",": 1377,
      "Ġká»ĥ": 1378,
      "á»Ńi": 1379,
      "ĠluáºŃt": 1380,
      "ĠâĢľ": 1381,
      "áº¢": 1382,
      "ĠÃ¡o": 1383,
      "lo": 1384,
      "and": 1385,
      "Ġsáº»": 1386,
      "ĠluáºŃn": 1387,
      "ĠÄĲá»©c": 1388,
      "ĠnÃ¢ng": 1389,
      "Gi": 1390,
      "Æ°á»Ľi": 1391,
      "Ġtháº¥t": 1392,
      "ĠÄĳoáº¡n": 1393,
      "ĠÃŃch": 1394,
      "ĠquÃ¢n": 1395,
      "á»³": 1396,
      "Ã¹i": 1397,
      "Ġtuyá»ĩt": 1398,
      "Ġgiá»ĳng": 1399,
      "á»ĳt": 1400,
      "up": 1401,
      "Ġthiá»ĩn": 1402,
      "ĠNhÃł": 1403,
      "Ġhoáº¡ch": 1404,
      "Ġkiáº¿m": 1405,
      "vn": 1406,
      "ĠThÃłnh": 1407,
      "á»§y": 1408,
      "ND": 1409,
      "Ã£n": 1410,
      "ĠhÃ´m": 1411,
      "ĠCÃ³": 1412,
      "ip": 1413,
      "ĠChÃŃnh": 1414,
      "Ġtháº¯ng": 1415,
      "ĠvÃ²ng": 1416,
      "ĠdÃłng": 1417,
      "ĠgÃ¡i": 1418,
      "Ġtáº£i": 1419,
      "Ġbiá»ĥn": 1420,
      "Ġxa": 1421,
      "ĠMá»Ļt": 1422,
      "ĠIn": 1423,
      "Ġkháº©u": 1424,
      "ĠkÃŃch": 1425,
      "Ġ30": 1426,
      "á»ĭp": 1427,
      "ĠÄĳÃ´i": 1428,
      "CM": 1429,
      "Ġhá»ĵi": 1430,
      "Ġsuáº¥t": 1431,
      "CÃ¡c": 1432,
      "Ġgiáº£n": 1433,
      "Ġphá»§": 1434,
      "Ġnháº±m": 1435,
      "ĠphÃ©p": 1436,
      "Ġnghá»ĭ": 1437,
      ".\"": 1438,
      "ĠNháºŃt": 1439,
      "ĠÄĳau": 1440,
      "ov": 1441,
      "ĠKhÃ´ng": 1442,
      "ĠsÃ¢n": 1443,
      "ec": 1444,
      "Ġváº»": 1445,
      "ĠtrÃ¡i": 1446,
      "Ġcam": 1447,
      "ĠmÃ¹a": 1448,
      "ĠthÆ¡": 1449,
      "iá»ģm": 1450,
      "ĠÄĳÃ´ng": 1451,
      "ĠcáºŃp": 1452,
      "Ġxanh": 1453,
      "Ġnhiá»ĩt": 1454,
      "Ã¨n": 1455,
      "Ġ/": 1456,
      "Ġthiáº¿u": 1457,
      "Ġá»": 1458,
      "ĠhÃ²a": 1459,
      "ite": 1460,
      "ĠhÃºt": 1461,
      "iá»ħ": 1462,
      "Ġná»ģn": 1463,
      "uÃ¢n": 1464,
      "ak": 1465,
      "Ġxin": 1466,
      "Ġvá»įng": 1467,
      "ex": 1468,
      "ĠbÃ¡c": 1469,
      "Ãģ": 1470,
      "Ġpháº¡m": 1471,
      "ĠBáº¡n": 1472,
      "Ġ2021": 1473,
      "ĠÄĲÃ´ng": 1474,
      "ub": 1475,
      "ĠmÃ´": 1476,
      "ĠÄĳÃ¡p": 1477,
      "Ġháº¯n": 1478,
      "Ġvá»ĳn": 1479,
      "ĠcÆ°": 1480,
      "ĠSau": 1481,
      "88": 1482,
      "ģm": 1483,
      "ĠnháºŃt": 1484,
      "Ġhuyá»ĩn": 1485,
      "ĠphÃºt": 1486,
      "Ġngá»§": 1487,
      "ĠHá»Ļi": 1488,
      "Ġtráº¯ng": 1489,
      "Ġnáº±m": 1490,
      "Ġdáº§u": 1491,
      "ĠthÆ°á»Łng": 1492,
      "Ã£y": 1493,
      "ĠNhá»¯ng": 1494,
      "ĠVá»Ľi": 1495,
      "Ġcá»Ļng": 1496,
      "ĠKhi": 1497,
      "oc": 1498,
      "ĠphÃ¡": 1499,
      "ĠgÃ³p": 1500,
      "Ġnhá»Ľ": 1501,
      "ĠgiÃ¡c": 1502,
      "ĠÄĳá»į": 1503,
      "ĠÄĳÃ³ng": 1504,
      "ĠNhÆ°ng": 1505,
      "Ġ...": 1506,
      "ĠvÃłi": 1507,
      "ĠxÃ©t": 1508,
      "áº§ng": 1509,
      "ĠkhÄĥn": 1510,
      "Ġkhá»ıi": 1511,
      "ul": 1512,
      "Ġuy": 1513,
      "ĠBáº¯c": 1514,
      "ĠÃģ": 1515,
      "Ġtuáº§n": 1516,
      "Ġghi": 1517,
      "Ġcháº¡y": 1518,
      "ĠsÆ¡": 1519,
      "ĠnÃłng": 1520,
      "ĠÄĳÃłn": 1521,
      "Ġsáº¡ch": 1522,
      "od": 1523,
      "ĠÄĲÃ¢y": 1524,
      "Ġngoáº¡i": 1525,
      "Ġgá»Ńi": 1526,
      "ÃĢ": 1527,
      "ĠÄĳá»įc": 1528,
      "ĠThá»ĭ": 1529,
      "Ãºa": 1530,
      "uÃ´i": 1531,
      "«ng": 1532,
      "ĠHá»ĵ": 1533,
      "Ġnháº¹": 1534,
      "ĠÄĳá»©ng": 1535,
      "Ġmá»ģm": 1536,
      "Ġtrá»Ŀi": 1537,
      "ĠnhÃ³m": 1538,
      "Theo": 1539,
      "Ġchá»¯a": 1540,
      "iet": 1541,
      "ĠDÆ°Æ¡ng": 1542,
      "Ġlao": 1543,
      "ÃĶ": 1544,
      "ĠsÃ¢u": 1545,
      "era": 1546,
      "Ġchiá»ģu": 1547,
      "Ġbáº¡c": 1548,
      "ĠcÃ¢n": 1549,
      "ĠmÃ´n": 1550,
      "Ġ18": 1551,
      "Ġi": 1552,
      "ĠÄĲá»ĵng": 1553,
      "Ġphá»ĳi": 1554,
      "50": 1555,
      "Ġláº¡nh": 1556,
      "Ġcháº¿t": 1557,
      "Ġtráº£i": 1558,
      "ĠchÃºt": 1559,
      "ĠchÃ³ng": 1560,
      "Ġ200": 1561,
      "Ġtá»ĭ": 1562,
      "ĠLong": 1563,
      "Ġbá»ķ": 1564,
      "Ġháº¥p": 1565,
      "Ġá»ķ": 1566,
      "ĠnghiÃªn": 1567,
      "ĠchÄĥm": 1568,
      "ĠmÃ¡i": 1569,
      "ĠtrÃ¡nh": 1570,
      "Ġcáº£i": 1571,
      "Ã³i": 1572,
      "ĠHoÃłng": 1573,
      "á»£i": 1574,
      "ĠHoa": 1575,
      "Ġmong": 1576,
      "Ġchá»īnh": 1577,
      "ĠThu": 1578,
      "Ġmiá»ħn": 1579,
      "ĠTÃ¢y": 1580,
      "ir": 1581,
      "Ġon": 1582,
      "ĠHáº£i": 1583,
      "ĠháºŃu": 1584,
      "ail": 1585,
      "ĠNgÆ°á»Ŀi": 1586,
      "Ġnghá»ī": 1587,
      "Ġ16": 1588,
      "Ġráº»": 1589,
      "ĠVÃ¬": 1590,
      "ĠngÃ¢n": 1591,
      "Má»Ļt": 1592,
      "ĠnÃ³ng": 1593,
      "á»Ļn": 1594,
      "Ġnguy": 1595,
      "Ġmáº¯c": 1596,
      "Ġmá»¹": 1597,
      "Ġ14": 1598,
      "te": 1599,
      "ĠkhÃ¡m": 1600,
      "Ġnghiá»ģn": 1601,
      "Ġ100": 1602,
      "Ġ13": 1603,
      "Ġcháº³ng": 1604,
      "ĠthuáºŃn": 1605,
      "ĠthÃ¡i": 1606,
      "ook": 1607,
      "Ġvay": 1608,
      "á»¡": 1609,
      "ĠThÃ¡i": 1610,
      "oa": 1611,
      "ĠÄĳáº£o": 1612,
      "Ġpháº£n": 1613,
      "tt": 1614,
      "Ġchá»ĵng": 1615,
      "ĠBan": 1616,
      "Ġduy": 1617,
      "ĠSÆ¡n": 1618,
      "ĠDo": 1619,
      "ik": 1620,
      "Ġtáº§ng": 1621,
      "ĠxuyÃªn": 1622,
      "Ġkháº£o": 1623,
      "ĠÄĲiá»ģu": 1624,
      "ab": 1625,
      "ĠChá»§": 1626,
      "Ġgiáº¥y": 1627,
      "Ġvá»£": 1628,
      "ĠÄĳá»ı": 1629,
      "ew": 1630,
      "Ġ09": 1631,
      "ĠÃ´": 1632,
      "ĠmÃ¡u": 1633,
      "av": 1634,
      "ĠmÃ£": 1635,
      "ĠcÆ°á»Ŀi": 1636,
      "Ġná»ĳi": 1637,
      "iá»ħm": 1638,
      "ĠkÃ©o": 1639,
      "Ġsá»Ńa": 1640,
      "Ġtháº¥p": 1641,
      "ĠmÃłn": 1642,
      "ĠÃ¡nh": 1643,
      "Ġcháº¯n": 1644,
      "Ã¹y": 1645,
      "ĠhÃ£ng": 1646,
      "Ġ'": 1647,
      "Ġ24": 1648,
      "kh": 1649,
      "Ġtuyá»ĥn": 1650,
      "Ġnháº¡c": 1651,
      "á»«a": 1652,
      "ĠxÃºc": 1653,
      "ĠkhÃ³a": 1654,
      "ĠÄĳem": 1655,
      "30": 1656,
      "Ġtá»ĭch": 1657,
      "Ġlá»ħ": 1658,
      "Ġvai": 1659,
      "ĠmáºŃt": 1660,
      "ĠTÃ´i": 1661,
      "ĠtáºŃn": 1662,
      "ĠHÃłn": 1663,
      "Nhá»¯ng": 1664,
      "ob": 1665,
      "ĠhÆ¡i": 1666,
      "Ġmáº¡i": 1667,
      "Ġthá»Ń": 1668,
      "ĠthiÃªn": 1669,
      "Náº¿u": 1670,
      "Æ¯": 1671,
      "áº·n": 1672,
      "ĠtÃ³c": 1673,
      "Ġhiá»ĥm": 1674,
      "ĠVÃł": 1675,
      "Ġchá»Ĺ": 1676,
      "ĠÄĳÃ´": 1677,
      "ĠkÃŃnh": 1678,
      "ĠbÃ¡nh": 1679,
      "ĠthÃ´i": 1680,
      "ĠUS": 1681,
      "Ġquay": 1682,
      "ĠphiÃªn": 1683,
      "ĠsiÃªu": 1684,
      "art": 1685,
      "ĠlÄ©nh": 1686,
      "uá»ĳt": 1687,
      "Ġnghá»ģ": 1688,
      "Ġxáº£y": 1689,
      "ĠTá»ķng": 1690,
      "á»Ľm": 1691,
      "Ġmay": 1692,
      "ĠdÃ¢y": 1693,
      "ĠthÃº": 1694,
      "Ġháº¡i": 1695,
      "ĠtrÃ¡ch": 1696,
      "ĠÂ": 1697,
      "ĠÄĳÃło": 1698,
      "Ġmiá»ģn": 1699,
      "ĠÃĤ": 1700,
      "Ġquanh": 1701,
      "ĠvÆ°á»£t": 1702,
      "ĠkÃª": 1703,
      "ĠÄĳÃªm": 1704,
      "ĠthuÃª": 1705,
      "Báº¡n": 1706,
      "ess": 1707,
      "ĠlÃ£nh": 1708,
      "á»·": 1709,
      "áºµn": 1710,
      "ĠBáº£n": 1711,
      "Ġdáº¥u": 1712,
      "Ġháº¡": 1713,
      "ĠZ": 1714,
      "ĠThiÃªn": 1715,
      "ĠÄĳáº©y": 1716,
      "Ġkiá»ĥu": 1717,
      "ĠcÆ°á»Ŀng": 1718,
      "ĠsÆ°": 1719,
      "ĠsÃ³c": 1720,
      "Ġngon": 1721,
      "Ġthao": 1722,
      "Ġcháº¥p": 1723,
      "Ġmáº·c": 1724,
      "ĠbáºŃt": 1725,
      "Ãµi": 1726,
      "ĠlÃ¡": 1727,
      "Ġhuy": 1728,
      "Ġtá»ĳc": 1729,
      "Ġsá»¯a": 1730,
      "á»įt": 1731,
      "Ġtai": 1732,
      "Vá»Ľi": 1733,
      "Ġbuá»ķi": 1734,
      "ĠhÆ°Æ¡ng": 1735,
      "ĠngÃ´i": 1736,
      "Ġtrai": 1737,
      "Ġkia": 1738,
      "oÃłn": 1739,
      "Ġsá»Ľm": 1740,
      "Ġkháº¯c": 1741,
      "Ġa": 1742,
      "Ġ17": 1743,
      "Ã¨m": 1744,
      "Ġphá»ķ": 1745,
      "Ġgá»Ĺ": 1746,
      "Ġthá»§y": 1747,
      "ĠtÆ°á»Ľng": 1748,
      "ĠTrÆ°á»Ŀng": 1749,
      "HCM": 1750,
      "Ġluyá»ĩn": 1751,
      "ĠChÃ¢u": 1752,
      "iáº¿p": 1753,
      "Ġtháº©m": 1754,
      "ĠTráº§n": 1755,
      "Ġáº¥n": 1756,
      "ıa": 1757,
      "á»§ng": 1758,
      "ĠTá»«": 1759,
      "ity": 1760,
      "Ġlinh": 1761,
      "//": 1762,
      "est": 1763,
      "Ġnhá»Ŀ": 1764,
      "ĠnÃ´ng": 1765,
      "Ġlá»Ļ": 1766,
      "ĠCH": 1767,
      "Ġnáº·ng": 1768,
      "ĠtrÃ¬": 1769,
      "Ġnhiá»ħm": 1770,
      "ĠPhÃº": 1771,
      "Ġchá»©a": 1772,
      "Ġá»ķn": 1773,
      "ttp": 1774,
      "Ġtiá»ĥu": 1775,
      "uc": 1776,
      "ĠrÄĥng": 1777,
      "Ġsuy": 1778,
      "CÃ³": 1779,
      "Ġ2020": 1780,
      "Ã£o": 1781,
      "....": 1782,
      "ĠNgoÃłi": 1783,
      "Ġsáºµn": 1784,
      "Ġquáº§n": 1785,
      "Ġbá»¥": 1786,
      "Sau": 1787,
      "á»ĭa": 1788,
      "KhÃ´ng": 1789,
      "ark": 1790,
      "Ġngá»ĵi": 1791,
      "if": 1792,
      "ĠÄĲÃł": 1793,
      "Ġquen": 1794,
      "Ġchá»¯": 1795,
      "2020": 1796,
      "site": 1797,
      "://": 1798,
      "ĠLan": 1799,
      "Ġthai": 1800,
      "ĠcÆ°á»£c": 1801,
      "áº¤": 1802,
      "ĠnuÃ´i": 1803,
      "ĠchÃ¢u": 1804,
      "Å©i": 1805,
      "Iá»": 1806,
      "ut": 1807,
      "ĠÃĶ": 1808,
      "ra": 1809,
      "24": 1810,
      "Ġ&": 1811,
      "Ġkhá»Łi": 1812,
      "ĠcáºŃu": 1813,
      "ĠtÆ°Æ¡i": 1814,
      "ĠPhÃ¡p": 1815,
      "Ġsai": 1816,
      "15": 1817,
      "áº¢nh": 1818,
      "ĠquáºŃn": 1819,
      "Ġká»·": 1820,
      "Ġtáº·ng": 1821,
      "Ġcáº¥u": 1822,
      "Ġláº½": 1823,
      "ĠquÃ¡n": 1824,
      "iáº¿ng": 1825,
      "ĠthÃºc": 1826,
      "ue": 1827,
      "ack": 1828,
      "ĠLiÃªn": 1829,
      "ĠChÃŃ": 1830,
      "Ġliá»ģn": 1831,
      "ard": 1832,
      "Ġniá»ĩm": 1833,
      "ĠChÃºng": 1834,
      "ev": 1835,
      "ãĢ": 1836,
      "ĠTheo": 1837,
      "ĠLÃª": 1838,
      "st": 1839,
      "Ġbáº£ng": 1840,
      "25": 1841,
      "Ġtáº§m": 1842,
      "23": 1843,
      "ĠngÄĥn": 1844,
      "Ġthiá»ĩu": 1845,
      "Ġgiai": 1846,
      "Ġtáº¥n": 1847,
      "ĠviÃªm": 1848,
      "Ġlá»Ĺi": 1849,
      "ıng": 1850,
      "Ġmáº¥y": 1851,
      "ĠÄĲá»ĥ": 1852,
      "Ġxáº¿p": 1853,
      "ĠSh": 1854,
      "Qu": 1855,
      "Ġbáº¿p": 1856,
      "ĠLu": 1857,
      "ĠMÃ¡y": 1858,
      "Ġláº¡c": 1859,
      "Ġngá»Ŀ": 1860,
      "ĠÄĳen": 1861,
      "Ġtháº£o": 1862,
      "net": 1863,
      "ĠgiÃ¡m": 1864,
      "ort": 1865,
      "Ġcáº¯t": 1866,
      "ĠTrang": 1867,
      "TT": 1868,
      "Ġthá»ĭt": 1869,
      "ĠsoÃ¡t": 1870,
      "áº¹n": 1871,
      "Ġdáº¡y": 1872,
      "Ġsá»£": 1873,
      "ĠTu": 1874,
      "09": 1875,
      "Khi": 1876,
      "ĠTháº¿": 1877,
      "Ġkim": 1878,
      "Ġláº¯p": 1879,
      "Ġngá»¯": 1880,
      "Ã²i": 1881,
      "Ġ25": 1882,
      "ĠNgá»įc": 1883,
      "ĠQuáº£ng": 1884,
      "ĠcÅ©": 1885,
      "ĠTÃ¢n": 1886,
      "Ġ50": 1887,
      "ĠThá»§": 1888,
      "Ġtim": 1889,
      "Ġháº¡ng": 1890,
      "á»ĭnh": 1891,
      "Ġnghi": 1892,
      "ĠngÅ©": 1893,
      "ep": 1894,
      "Ġcáº§m": 1895,
      "16": 1896,
      "Ġsung": 1897,
      "ideo": 1898,
      "ĠkhÃ´": 1899,
      "ĠâĢ¦": 1900,
      "ĠUSD": 1901,
      "ĠthÄĥm": 1902,
      "ĠNguyÃªn": 1903,
      "18": 1904,
      "ĠdÃ¡ng": 1905,
      "ers": 1906,
      "05": 1907,
      "ĠhÃłi": 1908,
      "ĠGiang": 1909,
      "ĠtÃ´": 1910,
      "Ġgá»ĳc": 1911,
      "Ġtháº³ng": 1912,
      "Ġháº¡t": 1913,
      "ĠcÃ¡nh": 1914,
      "ĠniÃªn": 1915,
      "Ġláº¡": 1916,
      "Ġbáº§u": 1917,
      "14": 1918,
      "Ġdá»¯": 1919,
      "Ġthe": 1920,
      "ĠyÃªn": 1921,
      "Ġtuy": 1922,
      "ly": 1923,
      "ĠKá»³": 1924,
      "ff": 1925,
      "ĠChá»ī": 1926,
      "á»¥p": 1927,
      "ĠÄĳÃ¨n": 1928,
      "Ġkiá»ĩm": 1929,
      "ĠnghiÃªm": 1930,
      "CÃ´ng": 1931,
      "Ġrá»Ńa": 1932,
      "Ġonline": 1933,
      "ĠmÆ¡": 1934,
      "Ġbá»ģn": 1935,
      "ĠCÃ¡ch": 1936,
      "01": 1937,
      "ĠÄĲáº£ng": 1938,
      "ĠÄĳÃ³n": 1939,
      "Ġbuá»Ļc": 1940,
      "Ġmá»ĳi": 1941,
      "ĠÄĳÃŃch": 1942,
      "Ġdáº§n": 1943,
      "ĠthÃ¡c": 1944,
      "ok": 1945,
      "ĠÄĳá»ĳc": 1946,
      "Ġcoi": 1947,
      "Ġ2018": 1948,
      "ĠnÃ©t": 1949,
      "ĠHÃ²a": 1950,
      "07": 1951,
      "2019": 1952,
      "ore": 1953,
      "Ġvá»Ŀi": 1954,
      "age": 1955,
      "ĠHu": 1956,
      "ord": 1957,
      "ile": 1958,
      "ĠViet": 1959,
      "iá»ĩng": 1960,
      "Ġ2019": 1961,
      "ĠKim": 1962,
      "08": 1963,
      "ĠChÃºa": 1964,
      "CÃ¡ch": 1965,
      "Ġ+": 1966,
      "Ġsáº¡n": 1967,
      "ill": 1968,
      "Ġchá»Ŀ": 1969,
      "ht": 1970,
      "BND": 1971,
      "Ġdá»ĭ": 1972,
      "ĠPhÆ°Æ¡ng": 1973,
      "ĠXuÃ¢n": 1974,
      "Ġlá»įc": 1975,
      "ĠKinh": 1976,
      "Ġvá»¯": 1977,
      "Ġsh": 1978,
      "ĠtÃ¹y": 1979,
      "Ġhá»ĵng": 1980,
      "ÄĲá»ĥ": 1981,
      "ĠVN": 1982,
      ",âĢ¦": 1983,
      "ĠphÃºc": 1984,
      "Ġtá»Ļi": 1985,
      "Ġtá»Ļc": 1986,
      "Ġxong": 1987,
      "Ġcha": 1988,
      "ate": 1989,
      "Ġbá»©c": 1990,
      "Ġsáº¯p": 1991,
      "Ġmáº¡ch": 1992,
      "ĠPhÃ²ng": 1993,
      "Ġngáº¯n": 1994,
      "Ġxo": 1995,
      "Ã³t": 1996,
      "ĠtÃłu": 1997,
      "TÃ´i": 1998,
      "Ġáº©m": 1999,
      "á»ĩt": 2000,
      "ĠhÃ´n": 2001,
      "Ġ[": 2002,
      "ĠNinh": 2003,
      "á»¥n": 2004,
      "Ġthá»¥": 2005,
      "ĠbÃŃ": 2006,
      "Ġ22": 2007,
      "Ġtrao": 2008,
      "13": 2009,
      "ain": 2010,
      "ĠÃĤu": 2011,
      "ĠLe": 2012,
      "ĠphÃª": 2013,
      "Ġcá»Ń": 2014,
      "Ġmiá»ĩng": 2015,
      "Ġtá»ĵ": 2016,
      "Ġkhá»ĳi": 2017,
      "ĠCon": 2018,
      "Æ°á»Ŀn": 2019,
      "Ġquáº£ng": 2020,
      "ĠBáº£o": 2021,
      "ĠtrÃºc": 2022,
      "?\"": 2023,
      "Ġnáº¡n": 2024,
      "io": 2025,
      "ĠHÃ£y": 2026,
      "ĠThÃ´ng": 2027,
      "ĠÄĳoÃ¡n": 2028,
      "Ġlai": 2029,
      "ĠGiÃ¡": 2030,
      "Ġhá»©": 2031,
      "ĠthÆ°á»Ľc": 2032,
      "ien": 2033,
      "Ġtáº¯c": 2034,
      "ĠcÃ¡n": 2035,
      "ĠTR": 2036,
      "ĠgÃ³i": 2037,
      "ink": 2038,
      "Ġ23": 2039,
      "ĠrÃłng": 2040,
      "Ġly": 2041,
      "Æ°á»£u": 2042,
      "04": 2043,
      "ĠbÃło": 2044,
      "Ġ21": 2045,
      "Ġsuá»ĳt": 2046,
      "ĠmÃ¡t": 2047,
      "Xem": 2048,
      "áºµng": 2049,
      "ĠpháºŃn": 2050,
      "Ġháº§u": 2051,
      "ĠmÃ£i": 2052,
      "ĠSt": 2053,
      "03": 2054,
      "Ġáº¥m": 2055,
      "Ġvá»¯ng": 2056,
      "ĠPháºŃt": 2057,
      "Ġxu": 2058,
      "2018": 2059,
      "Ġtháº»": 2060,
      "Ġbá»Ļt": 2061,
      "Thá»©": 2062,
      "Ġnáº¯m": 2063,
      "ce": 2064,
      "ome": 2065,
      "Ġháº¡nh": 2066,
      "Æ°á»¡ng": 2067,
      "Ġko": 2068,
      "Ġhuyáº¿t": 2069,
      "ĠSá»Ł": 2070,
      "ĠdÃµi": 2071,
      "ĠhÃ¡t": 2072,
      "ĠkÃ©m": 2073,
      "ĠGia": 2074,
      "NgÃły": 2075,
      "ĠlÆ°á»£t": 2076,
      "ĠquÃł": 2077,
      "Ġkáº»": 2078,
      "ĠgÃł": 2079,
      "ĠmÃª": 2080,
      "ist": 2081,
      "ĠtÃ¡i": 2082,
      "ĠVÅ©": 2083,
      "Ġthuáº¿": 2084,
      "ĠNga": 2085,
      "ĠÆ¡n": 2086,
      "ĠcÃł": 2087,
      "Ġtrá»ĵng": 2088,
      "ebook": 2089,
      "ĠsÃ´ng": 2090,
      "ĠngÆ°Æ¡i": 2091,
      "Ä©a": 2092,
      "Ġtruy": 2093,
      "ĠÃĶng": 2094,
      "Ġxung": 2095,
      "ĠCam": 2096,
      "og": 2097,
      "ĠHá»ĵng": 2098,
      "ĠTáº¡i": 2099,
      "ĠÄĳÃ¡o": 2100,
      "ĠPhong": 2101,
      "iz": 2102,
      "ĠsÃłn": 2103,
      "ass": 2104,
      "02": 2105,
      "ĠdÆ°Æ¡ng": 2106,
      "17": 2107,
      "Ġláº¯m": 2108,
      "ĠbÃły": 2109,
      "200": 2110,
      "Ġcamera": 2111,
      "Ġhá»įa": 2112,
      "Ġdá»±a": 2113,
      "ww": 2114,
      "ĠÄĳáº¥y": 2115,
      "ĠsÃłng": 2116,
      "Ġmu": 2117,
      "Ġwebsite": 2118,
      "Ġláº¯ng": 2119,
      "co": 2120,
      "ĠlÃłn": 2121,
      "ĠBa": 2122,
      "ĠThÃ¡ng": 2123,
      "CH": 2124,
      "ĠUBND": 2125,
      "Ġchiáº¿u": 2126,
      "Ġbiá»ĩn": 2127,
      "Ġgháº¿": 2128,
      "Ġthoáº£i": 2129,
      "ĠkÃ¨o": 2130,
      "all": 2131,
      "ĠlÃłnh": 2132,
      "ĠnhiÃªu": 2133,
      "ĠmÅ©i": 2134,
      "ĠkÃ¨m": 2135,
      "acebook": 2136,
      "Ġthá»«a": 2137,
      "ax": 2138,
      "NgÆ°á»Ŀi": 2139,
      "Ġchuyáº¿n": 2140,
      "ĠGiá»": 2141,
      "--": 2142,
      "Ġcuá»ĳn": 2143,
      "ĠHá»": 2144,
      "ĠTin": 2145,
      "ĠNáºµng": 2146,
      "ĠNH": 2147,
      "ĠtrÃ¹ng": 2148,
      "Ġkhuyáº¿n": 2149,
      "NgoÃłi": 2150,
      "ĠLÃ½": 2151,
      "ãĢĤ": 2152,
      "ĠLinh": 2153,
      "ĠtuyÃªn": 2154,
      "ĠrÃºt": 2155,
      "Ġtháº§y": 2156,
      "á»©t": 2157,
      "Ġphiáº¿u": 2158,
      "ĠÂ»": 2159,
      "á»Ľp": 2160,
      "ĠPH": 2161,
      "ĠNgÃły": 2162,
      "Ġnháº¯c": 2163,
      "ĠNhÃ¢n": 2164,
      "ĠvÃ©": 2165,
      "áº¥c": 2166,
      "ĠrÆ°á»£u": 2167,
      "ĠLÃ¢m": 2168,
      "Ġcá»©ng": 2169,
      "ĠgiÃ³": 2170,
      "Ġtá»ĵn": 2171,
      "ĠÄĳá»«ng": 2172,
      "Ġnáº¯ng": 2173,
      "ĠTÃłi": 2174,
      "ld": 2175,
      "ĠmÃ¹i": 2176,
      "Ġniá»ģm": 2177,
      "ĠÆ°á»Ľc": 2178,
      "Ġxáº¥u": 2179,
      "Ġof": 2180,
      "áº¾": 2181,
      "ĠtháºŃm": 2182,
      "Ġ2022": 2183,
      "oan": 2184,
      "ĠQuáºŃn": 2185,
      "ĠtÃ´n": 2186,
      "ĠEm": 2187,
      "Ġtáº¥m": 2188,
      "Ġmá»¥n": 2189,
      "áºł": 2190,
      "ĠDu": 2191,
      "Ġ2017": 2192,
      "ĠCho": 2193,
      "2022": 2194,
      "ĠÄĳá»Ļt": 2195,
      "ĠAr": 2196,
      "Ġchá»¥p": 2197,
      "Ġnháº¥n": 2198,
      "ĠHai": 2199,
      "ĠcáºŃn": 2200,
      "ĠlÆ°á»£c": 2201,
      "ĠPhÃ³": 2202,
      "ĠlÆ°Æ¡ng": 2203,
      "Ġgáº¯n": 2204,
      "ĠthÆ¡m": 2205,
      "VN": 2206,
      "ĠnÃºi": 2207,
      "our": 2208,
      "ĠbiÃªn": 2209,
      "ib": 2210,
      "Ġmáº½": 2211,
      "Ġtá»§": 2212,
      "amin": 2213,
      "Ġá»§y": 2214,
      "Ġlá»Ńa": 2215,
      "Ġcan": 2216,
      "Ġáº¢nh": 2217,
      "ĠgiÃłu": 2218,
      "á»īnh": 2219,
      "se": 2220,
      "ĠNÄĥm": 2221,
      "ĠAl": 2222,
      "ox": 2223,
      "ĠsÃ³ng": 2224,
      "ĠdÃły": 2225,
      "Ġma": 2226,
      "á»Ľt": 2227,
      "ĠGiÃ¡o": 2228,
      "Trang": 2229,
      "GiÃ¡": 2230,
      "Ġchiáº¿m": 2231,
      "ind": 2232,
      "ĠÄĲáº·c": 2233,
      "ĠtÃºi": 2234,
      "Ġhttp": 2235,
      "Ġrau": 2236,
      "Ġháº£o": 2237,
      "ĠTÆ°": 2238,
      "Ġká»ĭp": 2239,
      "áº³n": 2240,
      "ĠCao": 2241,
      "ank": 2242,
      "Ġá»ŀ": 2243,
      "PT": 2244,
      "ĠtÆ°á»Ŀng": 2245,
      "nam": 2246,
      "VI": 2247,
      "qu": 2248,
      "Ġkhá»ķ": 2249,
      "ĠViá»ĩc": 2250,
      "ĠQuang": 2251,
      "ian": 2252,
      "ĠhoÃłng": 2253,
      "ĠgÃ³c": 2254,
      "ĠtháºŃn": 2255,
      "Ã©o": 2256,
      "ĠlÃłng": 2257,
      "Ġ?": 2258,
      "ation": 2259,
      "ĠÄĳá»¡": 2260,
      "ĠChi": 2261,
      "Ġbá»įn": 2262,
      "Ġlan": 2263,
      "ĠkhÃ¡ng": 2264,
      "ost": 2265,
      "ÃĬ": 2266,
      "Ġtá»ĩ": 2267,
      "az": 2268,
      "Ã©n": 2269,
      "ĠtrÆ°ng": 2270,
      "ĠBÃ¡o": 2271,
      "Ġnáº¥u": 2272,
      "ĠvÅ©": 2273,
      "Ġgá»įn": 2274,
      "Ġgáº¯ng": 2275,
      "MÃ¡y": 2276,
      "pp": 2277,
      "Ġchá»£": 2278,
      "ud": 2279,
      "ĠThe": 2280,
      "ĠlÃ´ng": 2281,
      "ĠOn": 2282,
      "Ġthuyáº¿t": 2283,
      "Ġpha": 2284,
      "ĠChÆ°Æ¡ng": 2285,
      "BÆ°á»Ľc": 2286,
      "ell": 2287,
      "ĠÄĳáº³ng": 2288,
      "Ġcháº·t": 2289,
      "ĠkÃ¬": 2290,
      "ĠthoÃ¡t": 2291,
      "Ġphi": 2292,
      "Ġhá»įp": 2293,
      "AN": 2294,
      "Ġháº³n": 2295,
      "ĠgiÃłnh": 2296,
      "Ġand": 2297,
      "Ġkháº³ng": 2298,
      "Táº¡i": 2299,
      "are": 2300,
      "ĠVáºŃy": 2301,
      "Ġhá»Ļp": 2302,
      "ĠNha": 2303,
      "Ġhá»ģ": 2304,
      "ĠHiá»ĩn": 2305,
      "ĠquÃªn": 2306,
      "ĠlÃ£o": 2307,
      "ino": 2308,
      "Ġtáº¡p": 2309,
      "ĠmÆ°a": 2310,
      "Ġ=": 2311,
      "ĠchÃ¡y": 2312,
      "ĠlÃ¡i": 2313,
      "Ġtáº¯m": 2314,
      "99": 2315,
      "Ġsáº¯t": 2316,
      "2017": 2317,
      "Ġrá»«ng": 2318,
      "áºŃc": 2319,
      "ĠCÃ´": 2320,
      "Ġvideo": 2321,
      "Ġ28": 2322,
      "Tá»«": 2323,
      "Ġ26": 2324,
      "Ġloáº¡t": 2325,
      "ĠhÃłm": 2326,
      "Ġ27": 2327,
      "ĠKH": 2328,
      "ich": 2329,
      "ovid": 2330,
      "Ġkhung": 2331,
      "ĠBÃłi": 2332,
      "ĠvÃŃ": 2333,
      "ĠÄĲÃ³": 2334,
      "Ġe": 2335,
      "á»©a": 2336,
      "ĠBÃªn": 2337,
      "Ġ2016": 2338,
      "Ġváº¿t": 2339,
      "Tuy": 2340,
      "Ġninh": 2341,
      "ĠNÃ³": 2342,
      "á»ĭn": 2343,
      "īnh": 2344,
      "ĠÄĳá»£i": 2345,
      "ĠbÃ¢y": 2346,
      "ĠngÆ°á»£c": 2347,
      "ĠNG": 2348,
      "ĠphÃ³ng": 2349,
      "ĠcÆ°á»Ľi": 2350,
      "ĠPhÃ¡t": 2351,
      "ah": 2352,
      "uá»ķi": 2353,
      "ant": 2354,
      "Ġtá»Ŀ": 2355,
      "ĠÄĳÃ¡m": 2356,
      "Ġpháº¡t": 2357,
      "ĠrÆ¡i": 2358,
      "MT": 2359,
      "ment": 2360,
      "Ġvs": 2361,
      "ĠchÃ¡u": 2362,
      "ĠHá»įc": 2363,
      "ÄĲÃ¢y": 2364,
      "ĠRe": 2365,
      "Ġá»ĳng": 2366,
      "ĠQuÃ½": 2367,
      "Ġnhá»±a": 2368,
      "Ġngá»įt": 2369,
      "ĠSp": 2370,
      "ĠtrÄĥm": 2371,
      "ĠBÃł": 2372,
      "Ġtháº£i": 2373,
      "Ġxá»ķ": 2374,
      "Ġtá»ı": 2375,
      "Ġdinh": 2376,
      "Ġru": 2377,
      "Ġcl": 2378,
      "Ġsá»ķ": 2379,
      "Ġhu": 2380,
      "Ġliá»ĩt": 2381,
      "ĠcÃłi": 2382,
      "ĠHy": 2383,
      "Ġnha": 2384,
      "ĠKhu": 2385,
      "ĠCO": 2386,
      "ĠchÃłng": 2387,
      "Ġdá»ĭp": 2388,
      "ĠkhuÃ´n": 2389,
      "Ġdá»«ng": 2390,
      "ĠSáº£n": 2391,
      "ĠthÃŃ": 2392,
      "ĠbáºŃc": 2393,
      "ick": 2394,
      "Iá»Ĩ": 2395,
      "ĠlÃ£i": 2396,
      "26": 2397,
      "Ġgiáº£ng": 2398,
      "Ġtrá»©ng": 2399,
      "ĠÄĲiá»ĩn": 2400,
      "ĠPháº¡m": 2401,
      "Ġsong": 2402,
      "ĠcháºŃm": 2403,
      "ternet": 2404,
      "á»Ļp": 2405,
      "ĠsÆ¡n": 2406,
      "Ġtrá»¥": 2407,
      "Phone": 2408,
      "Ġkem": 2409,
      "Ġngáº¡i": 2410,
      "ĠNhÆ°": 2411,
      "ĠThÆ°Æ¡ng": 2412,
      "Ġ#": 2413,
      "Ġkhuáº©n": 2414,
      "Ġláº«n": 2415,
      "ĠÄĳÆ°Æ¡ng": 2416,
      "ĠÄĳÃ£i": 2417,
      "Hiá»ĩn": 2418,
      "ĠtÃ²a": 2419,
      "ĠSÃłi": 2420,
      "ĠSá»±": 2421,
      "Ġbá»¯a": 2422,
      "ĠlÆ°ng": 2423,
      "Ġxinh": 2424,
      "Ġkháº¯p": 2425,
      "ĠTáº¿t": 2426,
      "ĠtrÃł": 2427,
      "Ġná»Ńa": 2428,
      "Ġhy": 2429,
      "itamin": 2430,
      "Ġbá»¥ng": 2431,
      "Ġgáº¥p": 2432,
      "Ġmá»Ŀi": 2433,
      "Ġmá»«ng": 2434,
      "Ġmá»Ļ": 2435,
      "ĠÄĳá»©a": 2436,
      "Ġmá»ĩnh": 2437,
      "ĠlÃ´": 2438,
      "ÃĶng": 2439,
      "ond": 2440,
      "ey": 2441,
      "Ġná»£": 2442,
      "Ġcá»¥c": 2443,
      "ĠhoÃ¡": 2444,
      "TC": 2445,
      "ĠxÆ°Æ¡ng": 2446,
      "Ġ40": 2447,
      "ĠCl": 2448,
      "ÃĤ": 2449,
      "Ġbuá»ĵn": 2450,
      "ina": 2451,
      "ĠbÄĥng": 2452,
      "ĠthÃ´n": 2453,
      "28": 2454,
      "gi": 2455,
      "ĠÆ°Æ¡ng": 2456,
      "Ġbáº¡i": 2457,
      "ĠTá»Ń": 2458,
      "AM": 2459,
      "ĠMai": 2460,
      "ĠSá»ĳ": 2461,
      "und": 2462,
      "IN": 2463,
      "ry": 2464,
      "ĠTá»ķ": 2465,
      "Ġcháº£y": 2466,
      "ĠÄĲÃ¬nh": 2467,
      "ĠNháº¥t": 2468,
      "ĠngÃ´n": 2469,
      "ĠLuáºŃt": 2470,
      "ĠCovid": 2471,
      "Ġkhiá»ĥn": 2472,
      "ĠGiÃ¡m": 2473,
      "TrÆ°á»Ľc": 2474,
      "Ġthua": 2475,
      "Ġngá»«ng": 2476,
      "Ġcáº·p": 2477,
      "ĠHá»į": 2478,
      "ĠGÃ²n": 2479,
      "Ġtrá»«": 2480,
      "Ġbá»ģ": 2481,
      "ĠbÃ¨": 2482,
      "ĠVÆ°Æ¡ng": 2483,
      "ĠÄĲÆ°á»Ŀng": 2484,
      "Ġtáº£ng": 2485,
      "Ġâ": 2486,
      "==": 2487,
      "Ġlá»ĩnh": 2488,
      "ĠkhÃºc": 2489,
      "ĠÄĳiá»ĥn": 2490,
      "oy": 2491,
      "Ġtáº¡m": 2492,
      "ĠBá»ĩnh": 2493,
      "Ġrá»Ŀi": 2494,
      "ĠThá»Ŀi": 2495,
      "BÃłi": 2496,
      "ĠYÃªn": 2497,
      "Ġung": 2498,
      "ĠcÄĥng": 2499,
      "ĠThiáº¿t": 2500,
      "ĠvÆ°á»Ŀn": 2501,
      "ĠCÆ¡": 2502,
      "gle": 2503,
      "Ġ29": 2504,
      "36": 2505,
      "ĠTiÃªn": 2506,
      "Ġnguyá»ĩn": 2507,
      "Ġlá»ĳi": 2508,
      "ĠVÃ¢n": 2509,
      "45": 2510,
      "ĠMan": 2511,
      "ĠNew": 2512,
      "ĠÄĳá»©c": 2513,
      "Ġ01": 2514,
      "ĠGame": 2515,
      "Ġháº£i": 2516,
      "ĠCity": 2517,
      "ĠCÃ²n": 2518,
      "Ġsá»©": 2519,
      "eg": 2520,
      "Ġloáº¡n": 2521,
      "oogle": 2522,
      "ĠcÆ¡m": 2523,
      "ĠGiáº£i": 2524,
      "!\"": 2525,
      "Æ¯á»": 2526,
      "ĠTáºŃp": 2527,
      "Ġtáº¯t": 2528,
      "Ġtrá»¯": 2529,
      "ĠLÃłm": 2530,
      "ĠphÃº": 2531,
      "acc": 2532,
      "ĠquÃª": 2533,
      "Ġrá»ĳi": 2534,
      "á»§i": 2535,
      "ĠDá»±": 2536,
      "Ġthá»Ł": 2537,
      "Ġlá»Ĺ": 2538,
      "Ġbáº¯n": 2539,
      "ĠlÆ°á»Ľi": 2540,
      "ĠBá»Łi": 2541,
      "Ġtáº£": 2542,
      "Ġtruyá»ĩn": 2543,
      "Ġthá»Ŀ": 2544,
      "2016": 2545,
      "ĠHÆ°Æ¡ng": 2546,
      "Ġngang": 2547,
      "iew": 2548,
      "Ġlá»¥c": 2549,
      "ĠhÃło": 2550,
      "Ġmáº¯n": 2551,
      "Ġtá»ķn": 2552,
      "ĠÄĲá»Ļ": 2553,
      "ĠPro": 2554,
      "ThÃ´ng": 2555,
      "ĠÄĳá»ĭch": 2556,
      "ĠdÆ°á»£c": 2557,
      "Ġxá»©": 2558,
      "ĠQuÃ¢n": 2559,
      "Ġ08": 2560,
      "Ġcu": 2561,
      "ĠÄĲá»ĭa": 2562,
      "Ġthá»ıa": 2563,
      "Ã£ng": 2564,
      "ĠHÃłng": 2565,
      "ĠnghÃ¨o": 2566,
      "ĠnhÃłng": 2567,
      "Ġthang": 2568,
      "ee": 2569,
      "cm": 2570,
      "Ġbinh": 2571,
      "ĠÄĳáºŃu": 2572,
      "ĠLa": 2573,
      "ÃĶNG": 2574,
      "ĠPl": 2575,
      "Ġáº©n": 2576,
      "ĠloÃłi": 2577,
      "ix": 2578,
      "ĠphÆ°á»Ŀng": 2579,
      "ĠiPhone": 2580,
      "ĠÄĲá»ĳi": 2581,
      "Ġná»ķ": 2582,
      "orld": 2583,
      "Ġháº¹n": 2584,
      "Ġhá»ĵn": 2585,
      "±ng": 2586,
      "Ġgiá»ıi": 2587,
      "Ġtrá»įn": 2588,
      "ĠÃ©p": 2589,
      "ĠLÃł": 2590,
      "ĠmÃły": 2591,
      "ĠhÃ¨": 2592,
      "ĠthÆ°á»£ng": 2593,
      "âĢ¦âĢ¦": 2594,
      "Ãºy": 2595,
      "ast": 2596,
      "ĠKhoa": 2597,
      "ĠtÃ´ng": 2598,
      "ĠHÆ°ng": 2599,
      "27": 2600,
      "TV": 2601,
      "ĠÄĲoÃłn": 2602,
      "Ġvá»ı": 2603,
      "Ġsu": 2604,
      "ĠÄĳá»ĩ": 2605,
      "ĠTÃ¢m": 2606,
      "ĠPhi": 2607,
      "ĠÄĳÃ²i": 2608,
      "Ġ2015": 2609,
      "II": 2610,
      "Ġmai": 2611,
      "out": 2612,
      "Ġche": 2613,
      "Ġgiáº¥c": 2614,
      "Ġla": 2615,
      "ChÃºng": 2616,
      "LV": 2617,
      "Ġáº¤": 2618,
      "ĠchÃło": 2619,
      "ight": 2620,
      "áº¹o": 2621,
      "ĠMar": 2622,
      "ĠgÆ°Æ¡ng": 2623,
      "Ġu": 2624,
      "Ġná»Ĺi": 2625,
      "ach": 2626,
      "á»Ĳ": 2627,
      "ĠÄĳá»īnh": 2628,
      "Ġgan": 2629,
      "NhÃł": 2630,
      "ĠtrÃ²n": 2631,
      "Ġco": 2632,
      "top": 2633,
      "ĠtÄ©nh": 2634,
      "Bá»Ļ": 2635,
      "end": 2636,
      "ĠcÃº": 2637,
      "Ġcháº¡m": 2638,
      "Æ¡m": 2639,
      "Anh": 2640,
      ">>": 2641,
      "29": 2642,
      "ĠTiá»ĥu": 2643,
      "log": 2644,
      "Ġ60": 2645,
      "ver": 2646,
      "ĠchÃ³": 2647,
      "ĠPr": 2648,
      "Ġquang": 2649,
      "Ġkhá»§ng": 2650,
      "ĠthÃ©p": 2651,
      "ĠtrÃ´ng": 2652,
      "ty": 2653,
      "Giá»": 2654,
      "ĠxÆ°a": 2655,
      "TrÃªn": 2656,
      "ĠtÃ¢n": 2657,
      "ĠgiÃł": 2658,
      "ber": 2659,
      "ĠphÃ¡i": 2660,
      "ive": 2661,
      "Ġtráº¥n": 2662,
      "ĠthoÃ¡ng": 2663,
      "ĠgiÃ£n": 2664,
      "Ġmá»¡": 2665,
      "ml": 2666,
      "Ġváº£i": 2667,
      "Ġthá»±": 2668,
      "ĠbÃ©o": 2669,
      "ĠkÃªnh": 2670,
      "Ġphá»©c": 2671,
      "ĠDá»ĭch": 2672,
      "Ġná»Ĺ": 2673,
      "Ġtiá»ģm": 2674,
      "ĠÄĳua": 2675,
      "ft": 2676,
      "sh": 2677,
      "ÄĲT": 2678,
      "ĠngÃłn": 2679,
      "ĠÄĲáº§u": 2680,
      "55": 2681,
      "Ġhiá»ĥn": 2682,
      "¦y": 2683,
      "40": 2684,
      "ĠThá»©": 2685,
      "ĠdáºŃy": 2686,
      "ĠTiáº¿n": 2687,
      "ĠBl": 2688,
      "Ġhá»©ng": 2689,
      "ĠTháº§n": 2690,
      "ĠPhÃºc": 2691,
      "Æł": 2692,
      "app": 2693,
      "Ġngá»«a": 2694,
      "ĠNgÃ¢n": 2695,
      "ĠbÃ²": 2696,
      "Ġnon": 2697,
      "Ġthiá»ĥu": 2698,
      "ĠkÃŃn": 2699,
      "Ġbá»¥i": 2700,
      "ĠNghá»ĩ": 2701,
      "tel": 2702,
      "á»³nh": 2703,
      "ĠUn": 2704,
      "ĠkhÃ¡n": 2705,
      "ĠÄĲá»ĭnh": 2706,
      "CO": 2707,
      "ĠcÆ¡n": 2708,
      "ĠÄĲáº¿n": 2709,
      "Ġthá»ķ": 2710,
      "ton": 2711,
      "ĠthÃ¹": 2712,
      "ĠCáº§n": 2713,
      "ĠtrÃº": 2714,
      "Em": 2715,
      "ĠHÃ³a": 2716,
      "Ġmá»±c": 2717,
      "ĠPháº§n": 2718,
      "ĠHáº¡": 2719,
      "Ġgiá»įng": 2720,
      "ĠAnd": 2721,
      "Ġtan": 2722,
      "Ġchua": 2723,
      "ĠVin": 2724,
      "Ãªnh": 2725,
      "ĠThá»±c": 2726,
      "ĠHCM": 2727,
      "ĠtÃ¢y": 2728,
      "ĠkÃªu": 2729,
      "ect": 2730,
      "á»Ĺng": 2731,
      "Ġváº½": 2732,
      "Ġpro": 2733,
      "Ġdiá»ĩt": 2734,
      "60": 2735,
      "Ġsá»ĳt": 2736,
      "Ġcá»ķng": 2737,
      "ĠTáº¥t": 2738,
      "35": 2739,
      "ĠrÃ£i": 2740,
      "ĠViá»ĩn": 2741,
      "ĠÄĳáº¿": 2742,
      "ĠgiÃły": 2743,
      "ĠtrÆ°Æ¡ng": 2744,
      "ĠVinh": 2745,
      "ÄĲá»ĳi": 2746,
      "ĠÄĳÃłi": 2747,
      "Ġngo": 2748,
      "ĠbÃ£i": 2749,
      "ĠNhiá»ģu": 2750,
      "ĠXem": 2751,
      "ĠThá»§y": 2752,
      "á»¥ng": 2753,
      "BÃªn": 2754,
      "Ġ02": 2755,
      "ÄĲiá»ģu": 2756,
      "ĠNghá»ĭ": 2757,
      "pl": 2758,
      "ĠgiÆ°á»Ŀng": 2759,
      "ear": 2760,
      "ĠFacebook": 2761,
      "ho": 2762,
      "Ġcháº·n": 2763,
      "ĠThÃ¡nh": 2764,
      "Ġngá»±c": 2765,
      "ĠnhuáºŃn": 2766,
      "ĠGI": 2767,
      "ĠKáº¿t": 2768,
      "Thá»Ŀi": 2769,
      "ĠTrÃªn": 2770,
      "Ġsáº¯m": 2771,
      "ĠnÃ£o": 2772,
      "Ġtráº§n": 2773,
      "ĠÄĳáº£ng": 2774,
      "ice": 2775,
      "Ġviá»ĩt": 2776,
      "ĠÄĳáºŃm": 2777,
      "ĠÆ°a": 2778,
      "Ġláº»": 2779,
      "Ġtráº§m": 2780,
      "ĠCá»Ļng": 2781,
      "ĠPhan": 2782,
      "Ġduyá»ĩt": 2783,
      "mart": 2784,
      "áº¬": 2785,
      "!!": 2786,
      "Ġá»¦y": 2787,
      "Ġmá»ĩt": 2788,
      "ĠKhÃ¡nh": 2789,
      "ĠtháºŃp": 2790,
      "Ġfan": 2791,
      "33": 2792,
      "Ġpin": 2793,
      "ĠhÆ°": 2794,
      "Ġdao": 2795,
      "Ġá»§ng": 2796,
      "Ġmá»ıi": 2797,
      "ĠTrÆ°á»Ľc": 2798,
      "ĠKhÃ¡ch": 2799,
      "ĠDÃ¢n": 2800,
      ");": 2801,
      "ull": 2802,
      "ĠbÃ³": 2803,
      "phone": 2804,
      "Ġgiáº¿t": 2805,
      "Ġ07": 2806,
      "ĠSinh": 2807,
      "ĠÄĲá»": 2808,
      "iáº¿c": 2809,
      "ÄĤ": 2810,
      "ðŁ": 2811,
      "ĠdÆ°": 2812,
      "á»Ļm": 2813,
      "OS": 2814,
      "Ġhttps": 2815,
      "Ġfor": 2816,
      "Ġ03": 2817,
      "Ġ500": 2818,
      "Ġbá»ĳn": 2819,
      "ĠBÃŃ": 2820,
      "ĠGr": 2821,
      "ĠVÄ©nh": 2822,
      "á»ıi": 2823,
      "TS": 2824,
      "ĠtrÃło": 2825,
      "Ġmá»ĭn": 2826,
      "UY": 2827,
      "Ġnhi": 2828,
      "Ġvitamin": 2829,
      "ĠMá»Ĺi": 2830,
      "ĠTuáº¥n": 2831,
      "NhÆ°ng": 2832,
      "ĠcÃ¡t": 2833,
      "ams": 2834,
      "ĠÄĳá»±ng": 2835,
      "ĠlÃŃ": 2836,
      "ĠApp": 2837,
      "ĠTiá»ģn": 2838,
      "Ġnáº¡p": 2839,
      "ĠdÃ¡m": 2840,
      "Ġvá»¡": 2841,
      "Ġtreo": 2842,
      "mm": 2843,
      "ĠHiá»ĩp": 2844,
      "Ġro": 2845,
      "ÃĬN": 2846,
      "2015": 2847,
      "Ġgá»£i": 2848,
      "ĠQuy": 2849,
      "Â·": 2850,
      "Ġcá»Ŀ": 2851,
      "ĠÄĲÃło": 2852,
      "EO": 2853,
      "asino": 2854,
      "ĠtÃŃ": 2855,
      "Viá»ĩc": 2856,
      "Ġthiá»ĩt": 2857,
      "ĠnÆ°á»Ľng": 2858,
      "á»ŀ": 2859,
      "Ġpháº¥n": 2860,
      "Ġhiá»ĩp": 2861,
      "ĠngÆ¡i": 2862,
      "Ġbá»ĳi": 2863,
      "ĠCÃ¹ng": 2864,
      "ague": 2865,
      "Tin": 2866,
      "ĠChu": 2867,
      "Æ°á»Ľt": 2868,
      "Ġnháº¯n": 2869,
      "Ġ199": 2870,
      "Ġkhá»Ľp": 2871,
      "ĠOnline": 2872,
      "ĠtrÃłn": 2873,
      "Ġcháº¥m": 2874,
      "):": 2875,
      "roid": 2876,
      "ĠGoogle": 2877,
      "ĠBr": 2878,
      "38": 2879,
      "á»±u": 2880,
      "VÃ¬": 2881,
      "ĠchÃºc": 2882,
      "ĠLÆ°u": 2883,
      "ork": 2884,
      "á»§a": 2885,
      "ĠsÃ¡nh": 2886,
      "VID": 2887,
      "Ngh": 2888,
      "ĠLÃºc": 2889,
      "á»ĳp": 2890,
      "ĠmÃ£n": 2891,
      "%.": 2892,
      "ĠBiÃªn": 2893,
      "ies": 2894,
      "ĠÃ´m": 2895,
      "indow": 2896,
      "Ġtá»ĳn": 2897,
      "ĠWorld": 2898,
      "Ġxá»©ng": 2899,
      "ĠHÃ¬nh": 2900,
      "ini": 2901,
      "Ġ2014": 2902,
      "á»¥y": 2903,
      "ĠSá»Ń": 2904,
      "ĠQuan": 2905,
      "arket": 2906,
      "Ġtrá»Ļn": 2907,
      "Ġtri": 2908,
      "ĠVá»ģ": 2909,
      "ĠkhuyÃªn": 2910,
      "Ġmuá»ĳi": 2911,
      "ĠHLV": 2912,
      "ĠCan": 2913,
      "ĠnÃºt": 2914,
      "ays": 2915,
      "Ġj": 2916,
      "Ġcom": 2917,
      "ĠCup": 2918,
      "load": 2919,
      "Ġbá»Ŀ": 2920,
      "ug": 2921,
      "Ġ06": 2922,
      "Ġáº¡": 2923,
      "ode": 2924,
      "Home": 2925,
      "ĠThÆ°á»Ŀng": 2926,
      "Vá»ģ": 2927,
      "uk": 2928,
      "Ġhot": 2929,
      "ĠAd": 2930,
      "ĠkhoÃ¡n": 2931,
      "ĠHD": 2932,
      "Ġsoi": 2933,
      "ĠtiÃªm": 2934,
      "Ġpháº«u": 2935,
      "ĠlÅ©": 2936,
      "Ġhuáº¥n": 2937,
      "ĠgiÃ¢y": 2938,
      "Ġvua": 2939,
      "Ġtháº¯c": 2940,
      "Ġhá»ıng": 2941,
      "tion": 2942,
      "ĠHÃ¹ng": 2943,
      "Ġáº¤n": 2944,
      "Ġ05": 2945,
      "ĠnghÃ¬n": 2946,
      "ĠthÃ¡ch": 2947,
      "Ġhiáº¿m": 2948,
      "80": 2949,
      "ĠTPHCM": 2950,
      "ĠÄĲÆ°á»£c": 2951,
      "Ġdáº¡": 2952,
      "Ġ>": 2953,
      "Ġbi": 2954,
      "rus": 2955,
      "ĠMáº·t": 2956,
      "Ġvong": 2957,
      "ĠhÃ¹ng": 2958,
      "own": 2959,
      "Ã¹m": 2960,
      "ĠCáº§u": 2961,
      "ĠMáº·c": 2962,
      "ĠTNH": 2963,
      "eng": 2964,
      "ĠkiÃªn": 2965,
      "ĠÃĿ": 2966,
      "ĠÄĳá»£": 2967,
      "ĠTÃ¬nh": 2968,
      "ide": 2969,
      "oh": 2970,
      "Ġdá»©t": 2971,
      "amp": 2972,
      "ĠxuÃ¢n": 2973,
      "Ġcáº©n": 2974,
      "ÄĲá»ĭa": 2975,
      "Ġcá»Ļt": 2976,
      "Ġhá»§y": 2977,
      "ĠÄĳuá»ķi": 2978,
      "ĠTNHH": 2979,
      "ĠtÃ¡n": 2980,
      "Ġhuynh": 2981,
      "ĠchÃŃn": 2982,
      "ĠCom": 2983,
      "ĠÄĳiá»ĩu": 2984,
      "Ġláº·ng": 2985,
      "ĠmÃ³c": 2986,
      "Ġgiáº·t": 2987,
      "Ġtung": 2988,
      "ĠBáº¡ch": 2989,
      "Æ°á»Ľp": 2990,
      "Ġ)": 2991,
      "Ġthan": 2992,
      "ans": 2993,
      "ĠphÃ³": 2994,
      "Chá»§": 2995,
      "kg": 2996,
      "ĠsÃ´i": 2997,
      "37": 2998,
      "ĠkhoÃ¡ng": 2999,
      "Ġmáº¡c": 3000,
      "http": 3001,
      "alo": 3002,
      "ĠDi": 3003,
      "ĠAm": 3004,
      "ĠcÆ°Æ¡ng": 3005,
      "Ġláº§m": 3006,
      ",...": 3007,
      "Ġgáº¡o": 3008,
      "Ġ!": 3009,
      "ĠHuáº¿": 3010,
      "ĠBÃ¡c": 3011,
      "ĠCá»ķ": 3012,
      "old": 3013,
      "ĠnÃªu": 3014,
      "Ġvang": 3015,
      "ada": 3016,
      "Ãį": 3017,
      "ĠNgoáº¡i": 3018,
      "Ġcanh": 3019,
      "Ġtá»±a": 3020,
      "Ġ31": 3021,
      "ĠÄĳÄ©a": 3022,
      "Ġká»ĭch": 3023,
      "oll": 3024,
      "Ġáº£o": 3025,
      "Ġsex": 3026,
      "ĠHÆ°á»Ľng": 3027,
      "ĠâĢ¢": 3028,
      "ĠbÃª": 3029,
      "ĠÄĲÄĥng": 3030,
      "ĠÄĳá»£t": 3031,
      "ĠÄĲÃłi": 3032,
      "ĠbuÃ´n": 3033,
      "ĠCOVID": 3034,
      "ĠHá»ĩ": 3035,
      "Ġbáº¡ch": 3036,
      "Ġ04": 3037,
      "Ġtáº©y": 3038,
      "Ġhá»ķ": 3039,
      "39": 3040,
      "af": 3041,
      "ÄĲÆ°á»£c": 3042,
      "âĢĿ.": 3043,
      "ĠmÃłng": 3044,
      "aptop": 3045,
      "Tá»ķng": 3046,
      "Ġtá»ıa": 3047,
      "ĠchÃ¹a": 3048,
      "âĢĤ": 3049,
      "Ġcá»ĳt": 3050,
      "Ġrá»§i": 3051,
      "ĠbÃ´ng": 3052,
      "do": 3053,
      "Ġchá»§ng": 3054,
      "ĠgiÃ¡p": 3055,
      "ool": 3056,
      "Ġhuá»ĳng": 3057,
      "ĠHuy": 3058,
      "ĠThÆ°á»£ng": 3059,
      "xi": 3060,
      "ĠrÃ¡c": 3061,
      "ĠkhÃ³c": 3062,
      "ĠbÆ¡i": 3063,
      "ĠxÃ¢m": 3064,
      "ĠQuáº£n": 3065,
      "ont": 3066,
      "Ġmiáº¿ng": 3067,
      "ĠXe": 3068,
      "ĠÄĳáºŃp": 3069,
      "ĠtÃ¡ch": 3070,
      "66": 3071,
      "TP": 3072,
      "ĠInternet": 3073,
      "ĠTop": 3074,
      "ĠxÃ³a": 3075,
      "Ġ70": 3076,
      "ĠThuáºŃn": 3077,
      "ĠnhÃ£n": 3078,
      "indows": 3079,
      "ĠQU": 3080,
      "ĠEx": 3081,
      "ĠÃļ": 3082,
      "Do": 3083,
      "ĠBar": 3084,
      "AR": 3085,
      "Ġphun": 3086,
      "Ġgá»¡": 3087,
      "Ġná»Ļp": 3088,
      "500": 3089,
      "ĠkhÃŃch": 3090,
      "á»ıng": 3091,
      "ĠÄĲa": 3092,
      "Ġst": 3093,
      "44": 3094,
      "CN": 3095,
      "Ġlá»«a": 3096,
      "Ġbang": 3097,
      "Ġtiá»ĩc": 3098,
      "ĠbÃ¡t": 3099,
      "ĠVI": 3100,
      "so": 3101,
      "Ġ80": 3102,
      "ĠvÆ°Æ¡ng": 3103,
      "ĠNÆ°á»Ľc": 3104,
      "ĠgiáºŃn": 3105,
      "Ġtrá»¥c": 3106,
      "Ġ300": 3107,
      "Ġhoang": 3108,
      "ines": 3109,
      "ump": 3110,
      "ER": 3111,
      "Ġruá»Ļt": 3112,
      "pr": 3113,
      "wn": 3114,
      "Sá»±": 3115,
      "Ġ2013": 3116,
      "ĠtÃłn": 3117,
      "Ġbá»ĵi": 3118,
      "ĠAir": 3119,
      "Ġthuyá»ģn": 3120,
      "ri": 3121,
      "ĠGiao": 3122,
      "á»¯u": 3123,
      "Ġtrá»Ļi": 3124,
      "ĠBáº±ng": 3125,
      "Ġchá»«ng": 3126,
      "ĠTam": 3127,
      "Ġxoay": 3128,
      "roup": 3129,
      "Ġcáº¥m": 3130,
      "Ġshop": 3131,
      "ĠCá»¥c": 3132,
      "ĠthÃ¢m": 3133,
      "Thiáº¿t": 3134,
      "ĠhÃ´i": 3135,
      "Ġ90": 3136,
      "ĠTá»īnh": 3137,
      "Ġ35": 3138,
      "ĠKho": 3139,
      "77": 3140,
      "ĠtÃºc": 3141,
      "Ġtháº£m": 3142,
      "CC": 3143,
      "ha": 3144,
      "Ã©m": 3145,
      "su": 3146,
      "Ġchá»¥c": 3147,
      "lot": 3148,
      "34": 3149,
      "ĠlÃ¢m": 3150,
      "ĠbÃ¬": 3151,
      "ĠtÃ¹": 3152,
      "ĠAs": 3153,
      "ge": 3154,
      "Cho": 3155,
      "ĠMáº¹": 3156,
      "ĠChiáº¿n": 3157,
      "uong": 3158,
      "ĠÄĳá»ĳt": 3159,
      "ĠsÄĥn": 3160,
      "TH": 3161,
      "ĠÄĳeo": 3162,
      "ĠDuy": 3163,
      "Ġná»Ł": 3164,
      "ĠDÃ¹": 3165,
      "Ġkhen": 3166,
      "CS": 3167,
      "ĠTa": 3168,
      "ace": 3169,
      "Ġong": 3170,
      "ĠTrÆ°á»Łng": 3171,
      "Ġtop": 3172,
      "Ġchuá»Ĺi": 3173,
      "ĠtÃ¡o": 3174,
      "¡i": 3175,
      "ĠMa": 3176,
      "Ġthá»į": 3177,
      "arat": 3178,
      "ĠngÃ£": 3179,
      "ĠTiáº¿ng": 3180,
      "Ġtháº¥m": 3181,
      "ester": 3182,
      "ĠÃ¡i": 3183,
      "son": 3184,
      "85": 3185,
      "ĠDÅ©ng": 3186,
      "arketing": 3187,
      "Ġmá»ıng": 3188,
      "ĠCáº£nh": 3189,
      "min": 3190,
      "ChÃŃnh": 3191,
      "2014": 3192,
      "áº¦": 3193,
      "amsung": 3194,
      "ĠphÃ¡n": 3195,
      "ĠdÃŃnh": 3196,
      "Ġcá»ı": 3197,
      "ood": 3198,
      "NÄĥm": 3199,
      "Ġsá»¹": 3200,
      "ĠdÃ¢u": 3201,
      "Ġchuá»Ļt": 3202,
      "49": 3203,
      "ran": 3204,
      "NhÆ°": 3205,
      "to": 3206,
      "ash": 3207,
      "HÆ°á»Ľng": 3208,
      "ĠdÃ¡n": 3209,
      "Ãĵ": 3210,
      "Ġbá»Ľt": 3211,
      "yl": 3212,
      "ĠlÃ£ng": 3213,
      "Ġnháº£y": 3214,
      "Ġcáº£n": 3215,
      "Ġquá»¹": 3216,
      "75": 3217,
      "ĠxÆ°á»Łng": 3218,
      "31": 3219,
      "ĠTrÆ°Æ¡ng": 3220,
      "Ġtháº£": 3221,
      "Ġhá»Ĺn": 3222,
      "AT": 3223,
      "obile": 3224,
      "Ġná»ĵi": 3225,
      "LÃłm": 3226,
      "ĠbÃ£o": 3227,
      "á»įa": 3228,
      "ifi": 3229,
      "Æ°á»¡i": 3230,
      "ĠhÃ´": 3231,
      "ĠlÃ²": 3232,
      "Ġnáº¥m": 3233,
      "Ġdá»ĭu": 3234,
      "ĠÄĳam": 3235,
      "Ġbáº©n": 3236,
      "fa": 3237,
      "use": 3238,
      "46": 3239,
      "ĠNgÃłi": 3240,
      "ĠthÃ³i": 3241,
      "ĠbÃ¡m": 3242,
      "ĠCamera": 3243,
      "89": 3244,
      "Ġvu": 3245,
      "ĠVÃµ": 3246,
      "ĠKáº¿": 3247,
      "ĠCo": 3248,
      "XH": 3249,
      "Ġmen": 3250,
      "Ġ36": 3251,
      "ĠCÃ¡": 3252,
      "ĠngÆ°á»¡ng": 3253,
      "ĠEn": 3254,
      "aw": 3255,
      "ĠhÃ¢m": 3256,
      "ĠAc": 3257,
      "ĠToÃłn": 3258,
      "ĠCÅ©ng": 3259,
      "%,": 3260,
      "Ġemail": 3261,
      "ĠLÆ°Æ¡ng": 3262,
      "ĠlÃ¢y": 3263,
      "ĠÃ¡c": 3264,
      "Chá»ī": 3265,
      "Ġváº¹n": 3266,
      "ÃĮ": 3267,
      "AS": 3268,
      "Ġhá»©a": 3269,
      "ĠtáºŃt": 3270,
      "ĠTÃłu": 3271,
      "ĠTá»": 3272,
      "Ġbáº¯c": 3273,
      "ON": 3274,
      "rid": 3275,
      "ĠMy": 3276,
      "ĠPark": 3277,
      "ĠXÃ¢y": 3278,
      "ĠDoanh": 3279,
      "man": 3280,
      "ĠAndroid": 3281,
      "ĠkÄ©": 3282,
      "ĠbÆ¡m": 3283,
      "2013": 3284,
      "icro": 3285,
      "Ġvá»Ļi": 3286,
      "ĠUy": 3287,
      "Ġtrá»ĳng": 3288,
      "Ġchuá»Ļng": 3289,
      "ĠPhÆ°á»Ľc": 3290,
      "âĢĭ": 3291,
      "ĠHá»¯u": 3292,
      "LÃł": 3293,
      "ĠTrá»įng": 3294,
      "iver": 3295,
      "bo": 3296,
      "ChÆ°Æ¡ng": 3297,
      "act": 3298,
      "www": 3299,
      "ĠHÃłnh": 3300,
      "Ġvinh": 3301,
      "ĠHÆ¡n": 3302,
      "xy": 3303,
      "ĠSing": 3304,
      "Ġxay": 3305,
      "ĠLoan": 3306,
      "ĠGiá»Ľi": 3307,
      "Ġmáº£nh": 3308,
      "Ġtiáº¿c": 3309,
      "HÃ£y": 3310,
      "uro": 3311,
      "Ġbáº¡o": 3312,
      "Ġha": 3313,
      "Ġkháº¥u": 3314,
      "Ġsá»£i": 3315,
      "ky": 3316,
      "ĠPM": 3317,
      "In": 3318,
      "ĠNá»¯": 3319,
      "ĠMÃ£": 3320,
      "ĠSer": 3321,
      "ED": 3322,
      "ĠthÃ¡o": 3323,
      "á»Ĭ": 3324,
      "Ġ2012": 3325,
      "Ġ45": 3326,
      "ĠLeague": 3327,
      "ĠtÃ´m": 3328,
      "ade": 3329,
      "ure": 3330,
      "Ġxá»ī": 3331,
      "ĠbÃ¹": 3332,
      "ĠmÃ¬": 3333,
      "Ho": 3334,
      "ĠThá»ĥ": 3335,
      "ĠtrÃºng": 3336,
      "Trung": 3337,
      "eam": 3338,
      "á»ĳm": 3339,
      "ĠPhá»¥": 3340,
      "ĠCÃ¡i": 3341,
      "ith": 3342,
      "Ġloa": 3343,
      "Ġz": 3344,
      "Ġchá»Ł": 3345,
      "48": 3346,
      "ĠdÆ°á»Ŀng": 3347,
      "Ġcháº¥n": 3348,
      "47": 3349,
      "áº«y": 3350,
      "á»ĺ": 3351,
      "32": 3352,
      "Ġbá»įc": 3353,
      "iá»ħu": 3354,
      "ĠCS": 3355,
      "Ġsp": 3356,
      "Nhiá»ģu": 3357,
      "Ġbong": 3358,
      "CÃ´": 3359,
      "ĠWindows": 3360,
      "ĠsÃºng": 3361,
      "Ġchuyá»ģn": 3362,
      "Ġmá»ı": 3363,
      "á»ĭt": 3364,
      "ĠghÃ©p": 3365,
      "apore": 3366,
      "Ġcá»¡": 3367,
      "ĠViÃªn": 3368,
      "ĠTiÃªu": 3369,
      "ĠBÃ¡n": 3370,
      "ĠthÃ¡nh": 3371,
      "ĠÄĲáº¥t": 3372,
      "ĠvÃ¡y": 3373,
      "eal": 3374,
      "ĠNgÃ´": 3375,
      "ier": 3376,
      "uyen": 3377,
      "ĠAM": 3378,
      "ĠCháº¥t": 3379,
      "ĠGD": 3380,
      "ĠÃļc": 3381,
      "Ġtráº¡i": 3382,
      "įt": 3383,
      "Ġby": 3384,
      "ĠHÄĲ": 3385,
      "ĠSo": 3386,
      "ĠcáºŃy": 3387,
      "Ġga": 3388,
      "ĠngáºŃp": 3389,
      "ĠÄĲH": 3390,
      "ĠApple": 3391,
      "ĠmÆ°á»Ŀi": 3392,
      "Ġal": 3393,
      "ona": 3394,
      "ĠSa": 3395,
      "ĠSao": 3396,
      "ÄĲáº¡i": 3397,
      "ĠVietnam": 3398,
      "Ġnhá»ĭp": 3399,
      "ĠchÄĥn": 3400,
      "ET": 3401,
      "Ġtháº§u": 3402,
      "Ġvirus": 3403,
      "ĠÄĳáº¡p": 3404,
      "áºłI": 3405,
      "ĠduyÃªn": 3406,
      "ĠTo": 3407,
      "ĠThÆ¡": 3408,
      "ĠLá»Ļc": 3409,
      "Ġcáº¥t": 3410,
      "ram": 3411,
      "Ġngu": 3412,
      "ĠNÃªn": 3413,
      "Ġnháº¡y": 3414,
      "accarat": 3415,
      "cel": 3416,
      "ish": 3417,
      "ĠTiáº¿p": 3418,
      "ck": 3419,
      "ĠthÃ¹ng": 3420,
      "__": 3421,
      "áº«m": 3422,
      "ĠNÃ´ng": 3423,
      "ĠÄĳÃł": 3424,
      "go": 3425,
      "ĠchÄĥng": 3426,
      "Ġchim": 3427,
      "ym": 3428,
      "Ġim": 3429,
      ".,": 3430,
      "Ġngáº¡c": 3431,
      "HÃ¬nh": 3432,
      "Ġngáº¯m": 3433,
      "ĠCL": 3434,
      "LiÃªn": 3435,
      "ĠcÃ¡p": 3436,
      "Ġphá»ıng": 3437,
      "ĠTá»±": 3438,
      "Dá»±": 3439,
      "ĠWeb": 3440,
      "ĠLai": 3441,
      "Ġ*": 3442,
      "ĠMal": 3443,
      "Iáº¾": 3444,
      "ĠÄĲá»Ļng": 3445,
      "ial": 3446,
      "ĠmÃŃ": 3447,
      "ĠdÃłn": 3448,
      "??": 3449,
      "Ġgáº¡ch": 3450,
      "Ġcong": 3451,
      "khÃ´ng": 3452,
      "ĠnÃ©n": 3453,
      "ube": 3454,
      "ĠÄĳá»¥": 3455,
      "Ġlink": 3456,
      "ĠQua": 3457,
      "ĠÄĲá»Ļi": 3458,
      "ock": 3459,
      "ĠnhÃ¡nh": 3460,
      "Con": 3461,
      "Thá»±c": 3462,
      "Ġsa": 3463,
      "Ġsay": 3464,
      "59": 3465,
      "áº¹t": 3466,
      "ÄĲá»ĵng": 3467,
      "km": 3468,
      "Ġtháº¡ch": 3469,
      "ĠDN": 3470,
      "ĠhÃł": 3471,
      "ech": 3472,
      "isa": 3473,
      "ĠTrump": 3474,
      "ĠTÃ´": 3475,
      "Ġnhá»ĭ": 3476,
      "Ġkeo": 3477,
      "Ġkm": 3478,
      "68": 3479,
      "ĠHá»£p": 3480,
      "xit": 3481,
      "'s": 3482,
      "ĠÄĳai": 3483,
      "oot": 3484,
      "ĠgiáºŃt": 3485,
      "ĠMá»Ľi": 3486,
      "ÄĲáº¿n": 3487,
      "Ġmá»Ŀ": 3488,
      "ĠtrÃŃch": 3489,
      "Ġtha": 3490,
      "ĠGiáº¥y": 3491,
      "ĠMá»įi": 3492,
      "Ġlá»ĩch": 3493,
      "ĠVNÄĲ": 3494,
      "Ġliá»ģu": 3495,
      "Ġsáº¡c": 3496,
      "ĠLáº¡t": 3497,
      "ĠTÃŃnh": 3498,
      "Ġfile": 3499,
      "ĠvÃµ": 3500,
      "Ã£nh": 3501,
      "ust": 3502,
      "con": 3503,
      "100": 3504,
      "á»¦": 3505,
      "Ġtáº¿t": 3506,
      "Ġlau": 3507,
      "Dá»ĭch": 3508,
      "ĠcÃºng": 3509,
      "ÄĲáº·c": 3510,
      "ĠnhÃ´m": 3511,
      "ake": 3512,
      "ke": 3513,
      "onal": 3514,
      "Ġthuáº§n": 3515,
      "ĠFor": 3516,
      "Káº¿t": 3517,
      "ĠTHPT": 3518,
      "ĠCá»¥": 3519,
      "Ġngá»įc": 3520,
      "ĠsÃ¡u": 3521,
      "ĠÆ¡i": 3522,
      "........": 3523,
      "Ġháº§m": 3524,
      "Ġmi": 3525,
      "ĠvÃ¢n": 3526,
      "á»¨": 3527,
      "Ġchá»ĳt": 3528,
      "ĠNgay": 3529,
      "ĠNhi": 3530,
      "56": 3531,
      "ens": 3532,
      "ĠNghÄ©a": 3533,
      "á»¤": 3534,
      "eview": 3535,
      "Sáº£n": 3536,
      "----": 3537,
      "ern": 3538,
      "ĠÄĲiá»ĥm": 3539,
      "ĠSingapore": 3540,
      "Ġmá»ī": 3541,
      "ipp": 3542,
      "Ġbá»ĥ": 3543,
      "ĠÄĳÃłm": 3544,
      "ĠSong": 3545,
      "ĠCP": 3546,
      "ĠCÃ¢u": 3547,
      "ĠLá»ħ": 3548,
      "ĠNai": 3549,
      "ĠphÃŃm": 3550,
      "Ġháº±ng": 3551,
      "ĠbÃ¡": 3552,
      "ĠReal": 3553,
      "tain": 3554,
      "ĠPhÆ°á»Ŀng": 3555,
      "à¸": 3556,
      "ĠSamsung": 3557,
      "coin": 3558,
      "ĠCN": 3559,
      "ĠÄĳáº¯t": 3560,
      "ĠchÃºa": 3561,
      "ico": 3562,
      "ĠÄĲáº¡o": 3563,
      "ĠbÃº": 3564,
      "Ġva": 3565,
      "ĠPhim": 3566,
      "ĠmÆ°u": 3567,
      "Ġmá»įc": 3568,
      "ĠXÃ£": 3569,
      "ĠchÃ¡n": 3570,
      "2012": 3571,
      "ĠngÃ³n": 3572,
      "ĠthÄĥng": 3573,
      "ĠhÃłn": 3574,
      "int": 3575,
      "ĠsÃ²ng": 3576,
      "CP": 3577,
      "let": 3578,
      "assage": 3579,
      "ara": 3580,
      "ĠlÃ¡t": 3581,
      "Ġat": 3582,
      "Ġnáº¡": 3583,
      "ĠÄĳáº¯c": 3584,
      "Ġtháº±ng": 3585,
      "Æ¯u": 3586,
      "ĠxÄĥng": 3587,
      "Ġhoáº£ng": 3588,
      "ĠHoÃłn": 3589,
      "ĠMá»¥c": 3590,
      "á»°": 3591,
      "HÃł": 3592,
      "ĠÃĲ": 3593,
      "ĠThÆ°": 3594,
      "âĢ¦.": 3595,
      "Ġná»ĵng": 3596,
      "57": 3597,
      "ĠÃł": 3598,
      "âĢ¢": 3599,
      "ĠTinh": 3600,
      "Ġson": 3601,
      "TM": 3602,
      "ĠBáº¥t": 3603,
      "ĠCung": 3604,
      "ĠGal": 3605,
      "ĠBe": 3606,
      "ne": 3607,
      "Ġmáº»": 3608,
      "ĠtuÃ¢n": 3609,
      "ĠShop": 3610,
      "ary": 3611,
      "ĠQuyáº¿t": 3612,
      "ĠDung": 3613,
      "Ġcáº¯m": 3614,
      "ĠkÃŃ": 3615,
      "Ġgá»ĳi": 3616,
      "ĠRes": 3617,
      "ĠTáº£i": 3618,
      "Ġ150": 3619,
      "iss": 3620,
      ".ãĢĤ": 3621,
      "CÅ©ng": 3622,
      "58": 3623,
      "Ġdá»įc": 3624,
      "ike": 3625,
      "áº¤T": 3626,
      "Ġnháº«n": 3627,
      "ĠsÃ³t": 3628,
      "ĠbÃºt": 3629,
      "EN": 3630,
      "Ġhá»ĳi": 3631,
      "Ġxi": 3632,
      "52": 3633,
      "TÃ¬m": 3634,
      "ĠxÃ¡ch": 3635,
      "Ġlaptop": 3636,
      "ĠTp": 3637,
      "Ġá»©c": 3638,
      "ĠÄĳiá»ĩp": 3639,
      "ĠKiá»ģu": 3640,
      "ĠXin": 3641,
      "Hai": 3642,
      "ĠIP": 3643,
      "INH": 3644,
      "ĠdÃ¢m": 3645,
      "Ġ$": 3646,
      "ium": 3647,
      "Ġlong": 3648,
      "Ġmáº¡n": 3649,
      "ĠkhÃ´n": 3650,
      "ĠTÄ©nh": 3651,
      "sen": 3652,
      "Ġphu": 3653,
      "Ġlang": 3654,
      "ĠmÃ¨o": 3655,
      "ĠHay": 3656,
      "da": 3657,
      "ĠMua": 3658,
      "ĠTruyá»ģn": 3659,
      "ĠTháº£o": 3660,
      "ĠHuyá»ģn": 3661,
      "Ġtriá»ĩt": 3662,
      "Ġad": 3663,
      "ica": 3664,
      "ThÃ¡ng": 3665,
      "ĠSun": 3666,
      "âĢľ": 3667,
      "ĠCar": 3668,
      "ĠTÄĥng": 3669,
      "ĠAi": 3670,
      "GB": 3671,
      "ba": 3672,
      "ĠVÃŃ": 3673,
      "Sá»ĳ": 3674,
      "ĠrÅ©": 3675,
      "Ġkháº©n": 3676,
      "cÃ³": 3677,
      "eth": 3678,
      "ath": 3679,
      "ĠAS": 3680,
      "ĠKiá»ĥm": 3681,
      "ĠPar": 3682,
      "Æ°Æ¡n": 3683,
      "la": 3684,
      "Ġtuá»ĩ": 3685,
      "sp": 3686,
      "Ġcasino": 3687,
      "====": 3688,
      "Ġam": 3689,
      "ĠHot": 3690,
      "ĠTÃ´n": 3691,
      "Ġchiáº¿t": 3692,
      "Ġviá»ħn": 3693,
      "IC": 3694,
      "ĠTriá»ģu": 3695,
      "mp": 3696,
      "VÃł": 3697,
      "Ġná»¥": 3698,
      "70": 3699,
      "43": 3700,
      "ĠTháº¯ng": 3701,
      "ei": 3702,
      "ĠLá»ĭch": 3703,
      "ĠtrÆ°a": 3704,
      "ĠlÃºa": 3705,
      "âĢĿ,": 3706,
      "ĠDanh": 3707,
      "ĠSÆ°": 3708,
      "ĠKiáº¿n": 3709,
      "Ġ2010": 3710,
      "ĠtÃ¡": 3711,
      "axy": 3712,
      "Ġchá»ĳi": 3713,
      "Ġmáº§m": 3714,
      "ĠtrÃ´i": 3715,
      "ĠtÃºy": 3716,
      "VáºŃy": 3717,
      "Ġlá»ıng": 3718,
      "ĠthÃ´": 3719,
      "land": 3720,
      "Ġbia": 3721,
      "ĠngÃ¢m": 3722,
      "ES": 3723,
      "ĠTrÃŃ": 3724,
      "ĠÄĳá»ģn": 3725,
      "ĠHO": 3726,
      "ĠNÃ³i": 3727,
      "ower": 3728,
      "ĠVi": 3729,
      "ime": 3730,
      "ĠmÄĥng": 3731,
      "Ġmáº¡o": 3732,
      "Top": 3733,
      "42": 3734,
      "Máº·c": 3735,
      "Ġá»ĳc": 3736,
      "AI": 3737,
      "Ġtrá»Ļm": 3738,
      "ĠtÃłng": 3739,
      "ĠkhÃ¡t": 3740,
      "Ġcá»±u": 3741,
      "ĠDiá»ħn": 3742,
      "ĠMáº¡ng": 3743,
      "ĠChá»ĭ": 3744,
      "NháºŃn": 3745,
      "Ġrá»¡": 3746,
      "ĠVÃło": 3747,
      "ThÃłnh": 3748,
      "Ġká»ĩ": 3749,
      "LÆ°u": 3750,
      "ĠCÆ°á»Ŀng": 3751,
      "Nguá»ĵn": 3752,
      "ĠChÃºc": 3753,
      "ĠSy": 3754,
      "Ġtrá»ĳn": 3755,
      "Ġdá»«a": 3756,
      "Ġgam": 3757,
      "ĠHáºŃu": 3758,
      "US": 3759,
      "ĠLáº¡c": 3760,
      "uch": 3761,
      "ÄĲÄĥng": 3762,
      "Æ°á»£n": 3763,
      "ĠÃ¢n": 3764,
      "ĠxÆ¡": 3765,
      "ĠHuyá»ĩn": 3766,
      "Ġnháº¡t": 3767,
      "ĠBH": 3768,
      "AY": 3769,
      "Ġthá»£": 3770,
      "ĠPhil": 3771,
      "Ġngá»įn": 3772,
      "54": 3773,
      "Ġde": 3774,
      "Ġ2011": 3775,
      "CÃ²n": 3776,
      "âĢĶ": 3777,
      "ose": 3778,
      "ĠTriá»ĩu": 3779,
      "martphone": 3780,
      "ata": 3781,
      "ĠnÃ¡m": 3782,
      "79": 3783,
      "Ġcaf": 3784,
      "CT": 3785,
      "Tháº¿": 3786,
      "Ġchai": 3787,
      "ĠTT": 3788,
      "ĠngÃłi": 3789,
      "ĠTrá»ĭ": 3790,
      "IM": 3791,
      "ase": 3792,
      "Ġmá»ĳc": 3793,
      "ĠtÃŃm": 3794,
      "Ġshow": 3795,
      "Ġráº¯n": 3796,
      "Ġlá»ĵ": 3797,
      "ĠVá»¥": 3798,
      "ĠTO": 3799,
      "BÃ¡n": 3800,
      "ĠCuá»Ļc": 3801,
      "ĠÄĳáº±ng": 3802,
      "Ġtia": 3803,
      "ca": 3804,
      "Ġcá»ĳc": 3805,
      "Ġbáº¥m": 3806,
      "ve": 3807,
      "Giáº£i": 3808,
      "bank": 3809,
      "tein": 3810,
      "Ġtáº§n": 3811,
      "ĠMad": 3812,
      "Ġquyáº¿n": 3813,
      "Ġcháº½": 3814,
      "ĠCa": 3815,
      "Ġmá»Ļng": 3816,
      "Ġhiáº¿n": 3817,
      "ree": 3818,
      "ĠÄĤ": 3819,
      "ĠÄĲá»ģ": 3820,
      "he": 3821,
      "£n": 3822,
      "Ġngá»Ļ": 3823,
      "ave": 3824,
      "ĠVÃĢ": 3825,
      "Ġrung": 3826,
      "ĠmÃ¢y": 3827,
      "á»¥t": 3828,
      "Ġxáº£": 3829,
      "ĠMÆ°á»Ŀi": 3830,
      "Ġváº¡n": 3831,
      "EL": 3832,
      "ĠvÄ©": 3833,
      "áº¨": 3834,
      "itcoin": 3835,
      "ĠlÃ£m": 3836,
      "CÃ¢u": 3837,
      "ĠCLB": 3838,
      "ĠLy": 3839,
      "ĠÄĲá»Ĺ": 3840,
      "ĠChuyÃªn": 3841,
      "edia": 3842,
      "Ġcua": 3843,
      "Ġdá»įa": 3844,
      "áº¯k": 3845,
      "Ġtam": 3846,
      "ĠCÃ¡t": 3847,
      "Ġnáº¿p": 3848,
      "ĠII": 3849,
      "41": 3850,
      "áº»o": 3851,
      "Ġpl": 3852,
      "ma": 3853,
      "Ġbáº£y": 3854,
      "Ġháº¹p": 3855,
      "ĠThi": 3856,
      "ÃĤN": 3857,
      "ĠGam": 3858,
      "ale": 3859,
      "ĠBÃ¹i": 3860,
      "ĠnhÆ°á»£ng": 3861,
      "ĠTrÃł": 3862,
      "ĠLao": 3863,
      "ĠGMT": 3864,
      "ivi": 3865,
      "ĠbáºŃn": 3866,
      "ĠInd": 3867,
      "ĠLoáº¡i": 3868,
      "ĠThá»į": 3869,
      "ĠThá»¥y": 3870,
      "**": 3871,
      "ĠVá»ĭ": 3872,
      "ĠmÃ³ng": 3873,
      "Ġkhá»ķng": 3874,
      "AO": 3875,
      "Ġphiá»ģn": 3876,
      "ĠPC": 3877,
      "ĠYÃªu": 3878,
      "nÄĥm": 3879,
      "ĠHiá»ĩu": 3880,
      "eet": 3881,
      "Ġvan": 3882,
      "ĠEl": 3883,
      "ĠÄĳÃ¹a": 3884,
      "Ġau": 3885,
      "Ġhi": 3886,
      "ĠÄĲÃ¡nh": 3887,
      "ones": 3888,
      "Ġsoáº¡n": 3889,
      "ĠKá»¹": 3890,
      "Ġis": 3891,
      "ĠchiÃªu": 3892,
      "ĠChÆ¡i": 3893,
      "ota": 3894,
      "Ġtháº§m": 3895,
      "ĠcÆ°á»Ľp": 3896,
      "ĠdÄ©": 3897,
      "ions": 3898,
      "ĠMÃ¬nh": 3899,
      "Ġheo": 3900,
      "Ã¬a": 3901,
      "ews": 3902,
      "Ġchanh": 3903,
      "Ġoxy": 3904,
      "ĠlÃ´i": 3905,
      "Ġ32": 3906,
      "ĠÄĲá»«ng": 3907,
      "ics": 3908,
      "ĠEd": 3909,
      "ĠNháºŃn": 3910,
      "Ġbe": 3911,
      "90": 3912,
      "Ġhuyá»ģn": 3913,
      "ĠCáº£": 3914,
      "ĠCá»Ńa": 3915,
      "Ġbá»ĵn": 3916,
      "ĠLÃło": 3917,
      "Ġrá»±c": 3918,
      "ĠBao": 3919,
      "ĠTÃ¬m": 3920,
      "ĠDiá»ĩp": 3921,
      "ÃĿ": 3922,
      "ĠSu": 3923,
      "ext": 3924,
      "ĠÄĲÃ¡": 3925,
      "Ãļ": 3926,
      "ĠtrÃ¡ng": 3927,
      "ĠCha": 3928,
      "ĠMac": 3929,
      "ĠChung": 3930,
      "DÃ¹": 3931,
      "ĠquÃ¡i": 3932,
      "ĠÄĳáº¯p": 3933,
      "Ġclip": 3934,
      "tral": 3935,
      "Sh": 3936,
      "Ġkhoan": 3937,
      "ĠTháºŃt": 3938,
      "ieu": 3939,
      "Ġmá»ĵ": 3940,
      "Ġbáº¯p": 3941,
      "ĠPhÃ¢n": 3942,
      "Ġtiá»ħn": 3943,
      "ĠLam": 3944,
      "ĠTrÃ²": 3945,
      "Ġser": 3946,
      "CÃ¹ng": 3947,
      "ĠdÃ£": 3948,
      "ert": 3949,
      "ĠbÃ¹ng": 3950,
      "Kinh": 3951,
      "ĠSe": 3952,
      "ĠFl": 3953,
      "ĠBá»ĵ": 3954,
      "Pháº§n": 3955,
      "ngÃły": 3956,
      "ĠÄĲá»ĵ": 3957,
      "ct": 3958,
      "Ġdá»įn": 3959,
      "ĠDÆ°á»Ľi": 3960,
      "ĠhÃ²": 3961,
      "aysia": 3962,
      "ĠÄĳá»ĵn": 3963,
      "ĠMay": 3964,
      "ĠchÃ¢m": 3965,
      "ĠBiá»ĥn": 3966,
      "ĠVÅ©ng": 3967,
      "VÃło": 3968,
      "Ġmassage": 3969,
      "Táº¥t": 3970,
      "Ġup": 3971,
      "ĠMáº¡nh": 3972,
      "ĠCáº£m": 3973,
      "Ġkhá»©": 3974,
      "ĠChá»įn": 3975,
      "ĠÃĤm": 3976,
      "Ġ38": 3977,
      "Ġleo": 3978,
      "Ġhá»ıa": 3979,
      "ĠTÃ²a": 3980,
      "Bá»ĩnh": 3981,
      "Ġinternet": 3982,
      "ĠlÄĥn": 3983,
      "Tag": 3984,
      "olf": 3985,
      "else": 3986,
      "Mua": 3987,
      "Ġká»ģ": 3988,
      "ĠlÆ°á»¡i": 3989,
      "ĠvuÃ´ng": 3990,
      "ĠÄĳoáº¡t": 3991,
      "ðĿ": 3992,
      "ĠMáº«u": 3993,
      "51": 3994,
      "Ĥ«": 3995,
      "bet": 3996,
      "Ġcá»¥m": 3997,
      "ĠNhá»Ŀ": 3998,
      "ĠkhÃ¡i": 3999,
      "Ġmuá»Ļn": 4000,
      "AC": 4001,
      "atch": 4002,
      "GMT": 4003,
      "ĠSc": 4004,
      "enn": 4005,
      "Ġnhan": 4006,
      "ĠSan": 4007,
      "Ġlá»¡": 4008,
      "ĠHÃĢ": 4009,
      "Ġláº¯c": 4010,
      "ĠÄĳá»ĩm": 4011,
      "ĠmÆ°Æ¡i": 4012,
      "ĠcÃ£i": 4013,
      "Ġkhuyáº¿t": 4014,
      "att": 4015,
      "ĠTráº»": 4016,
      "ÃŃu": 4017,
      "Ġtráº¡m": 4018,
      "Ġxáº¿": 4019,
      "Ġlá»£n": 4020,
      "Ġac": 4021,
      "Ġcháº£": 4022,
      "ĠBu": 4023,
      "Ġapp": 4024,
      "ĠLá»£i": 4025,
      "ĠbÃ³n": 4026,
      "ĠNGH": 4027,
      "53": 4028,
      "Ġlá»Ļc": 4029,
      "Ġngá»±a": 4030,
      "ĠThá»ĳng": 4031,
      "Ġcay": 4032,
      "org": 4033,
      "html": 4034,
      "Ġsofa": 4035,
      "ĠGalaxy": 4036,
      "ĠghÃ©": 4037,
      "ĠTy": 4038,
      "ited": 4039,
      "ĠmÃłi": 4040,
      "ĠxÃ³m": 4041,
      "Ġbáº¿n": 4042,
      "Ġtháº¥u": 4043,
      "ĠsÃºt": 4044,
      "IS": 4045,
      "ama": 4046,
      "AD": 4047,
      "ĠCro": 4048,
      "ÄĲiá»ĩn": 4049,
      "ngÆ°á»Ŀi": 4050,
      "BÃ¬nh": 4051,
      "Ġsen": 4052,
      "ĠÄĤn": 4053,
      "ĠTÃŃn": 4054,
      "Ġcáº£ng": 4055,
      "ĠDe": 4056,
      "https": 4057,
      "Ġthiá»ĩp": 4058,
      "mail": 4059,
      "viet": 4060,
      "ĠÄĲinh": 4061,
      "ĠniÃªm": 4062,
      "ĠmÃ²n": 4063,
      "ĠVÃłng": 4064,
      "TrÆ°á»Ŀng": 4065,
      "Ġbá»Ĺng": 4066,
      "An": 4067,
      "ĠTV": 4068,
      "pe": 4069,
      "ĠkhÃ©o": 4070,
      "ĠLÄĥng": 4071,
      "onda": 4072,
      "Má»Ĺi": 4073,
      "agen": 4074,
      "ĠÃ¡m": 4075,
      "bao": 4076,
      "Ġ00": 4077,
      "ĠcÆ°á»Ľc": 4078,
      "ĠlÃ³t": 4079,
      "Æ°á»Łi": 4080,
      "lex": 4081,
      "Ġná»ģ": 4082,
      "ĠMá»Ļc": 4083,
      "Ġváº·t": 4084,
      "Ġcai": 4085,
      "oto": 4086,
      "2011": 4087,
      "ĠÄĲÆ¡n": 4088,
      "âĢ¦]": 4089,
      "áº±n": 4090,
      "Ġtháº¯t": 4091,
      "ĠCr": 4092,
      "ĠSon": 4093,
      "ĠLá»¥c": 4094,
      "NÃ³i": 4095,
      "ĠmÃ¡": 4096,
      "Ġsáº¥y": 4097,
      "ashi": 4098,
      "ĠÄĲÃ£": 4099,
      "ĠGiÃª": 4100,
      "Ġmáº¿n": 4101,
      "ÃŃa": 4102,
      "Ġgiang": 4103,
      "Ġnho": 4104,
      "ĠtrÆ°á»£t": 4105,
      "BS": 4106,
      "Ġxáº¡": 4107,
      "Cam": 4108,
      "ĠchÃ©p": 4109,
      "cl": 4110,
      "ÃĮNH": 4111,
      "Ġno": 4112,
      "86": 4113,
      "orn": 4114,
      "Ġgiáº¥u": 4115,
      "ĠÄĳe": 4116,
      "ĠÄĲi": 4117,
      "Há»ĩ": 4118,
      "Ġphá»ķi": 4119,
      "Sá»Ń": 4120,
      "Ġtour": 4121,
      "Ġtá»į": 4122,
      "Ġ400": 4123,
      "ĠÄĳuÃ´i": 4124,
      "ĠmÃ¹": 4125,
      "ĠBaccarat": 4126,
      "ĠQuá»³nh": 4127,
      "ĠSÃ¡ng": 4128,
      "ĠrÃ¨n": 4129,
      "ĠCá»§a": 4130,
      "ere": 4131,
      "NguyÃªn": 4132,
      "ĠtráºŃt": 4133,
      "ĠDr": 4134,
      "Ġkhe": 4135,
      "ĠDa": 4136,
      "PhÃ¡t": 4137,
      "tu": 4138,
      "ĠTháº§y": 4139,
      "Giá»Ľi": 4140,
      "Cl": 4141,
      "ĠÄĳÃºc": 4142,
      "lock": 4143,
      "Ġsim": 4144,
      "Ġtá»įa": 4145,
      "Ġmáº£ng": 4146,
      "ĠngÃµ": 4147,
      "Ġcá»ĳng": 4148,
      "ign": 4149,
      "ĠBáº¿n": 4150,
      "Æ¯á»ľ": 4151,
      "Ġá»ĵn": 4152,
      "ĠÄĳÃ³i": 4153,
      "ano": 4154,
      "elsea": 4155,
      "ĠkhÃ³i": 4156,
      "ĠCanada": 4157,
      "ID": 4158,
      "Viet": 4159,
      "ĠÄĲáº·t": 4160,
      "Ġpháº¿": 4161,
      "ĠhÃ£i": 4162,
      "ĠInter": 4163,
      "ĠÄĲÃ´": 4164,
      "âĢĻ": 4165,
      "Ġcm": 4166,
      "Ġá»Ľt": 4167,
      "Ġaxit": 4168,
      "BÃł": 4169,
      "ĠkhÃ¢u": 4170,
      "osted": 4171,
      "Xe": 4172,
      "ĠNet": 4173,
      "Ġlá»ĵng": 4174,
      "ana": 4175,
      "ĠchiÃªn": 4176,
      "ĠlÃŃnh": 4177,
      "EM": 4178,
      "ĠSÃ¡u": 4179,
      "Ġquáº¡t": 4180,
      "thÃ¡ng": 4181,
      "Æ¯Æł": 4182,
      "BÃ¡o": 4183,
      "ĠnhÆ°á»£c": 4184,
      "Ġbá»ķng": 4185,
      "Ġ[âĢ¦]": 4186,
      "AL": 4187,
      "ĠbÃ´i": 4188,
      "ĠIs": 4189,
      "ĠphÃ¡o": 4190,
      "Ġbá»ĳc": 4191,
      "ĠXi": 4192,
      "ĠChÃ¢n": 4193,
      "ĠPhá»ĳ": 4194,
      "á´": 4195,
      "ĠquÃ©t": 4196,
      "ĠDÃ¹ng": 4197,
      "ĠÃªm": 4198,
      "ĠCM": 4199,
      "Nam": 4200,
      "ĠÆ°á»Ľt": 4201,
      "ĠHáº±ng": 4202,
      "Ġkhoe": 4203,
      "ĠnÃ¢u": 4204,
      "ĠFr": 4205,
      "kin": 4206,
      "ĠsÆ°u": 4207,
      "ĠDáº§u": 4208,
      "ĠCol": 4209,
      "SÃ¡ng": 4210,
      "Ġcafe": 4211,
      "ĠMi": 4212,
      "ĠháºŃn": 4213,
      "Ġmau": 4214,
      "ĠnÃ¡t": 4215,
      "ÄĲáº§u": 4216,
      "Tiáº¿p": 4217,
      "ANH": 4218,
      "ĠCÄĥn": 4219,
      "raz": 4220,
      "Viá»ĩt": 4221,
      "ĠngÃło": 4222,
      "ĠvÆ°Æ¡n": 4223,
      "ĠkhÃ´i": 4224,
      "ĠquÃ¡t": 4225,
      "reen": 4226,
      "ĠLá»ĩ": 4227,
      "ĠGroup": 4228,
      "ãģ": 4229,
      "ĠHoáº·c": 4230,
      "ĠÄĳÃ¡y": 4231,
      "Ġváº¯ng": 4232,
      "ĠGu": 4233,
      "ĠkhoÃ¡c": 4234,
      "Ġhá»įng": 4235,
      "ĠSEO": 4236,
      "mi": 4237,
      "ĠTáº¥n": 4238,
      "Ġtiá»ĩm": 4239,
      "Ġngáº§m": 4240,
      "Há»įc": 4241,
      "ĠxÃŃch": 4242,
      "ĠtrÆ¡n": 4243,
      "CÆ¡": 4244,
      "ĠThay": 4245,
      "ĠThá»ķ": 4246,
      "ĠTham": 4247,
      "Ġkhoáº»": 4248,
      "Ġ39": 4249,
      "ĠlÃµi": 4250,
      "ĠxÄĥm": 4251,
      "Ná»Ļi": 4252,
      "Ġá»¨": 4253,
      "ĠGold": 4254,
      "KhÃ¡ch": 4255,
      "Ġlam": 4256,
      "ĠchÃ©n": 4257,
      "Ġtao": 4258,
      "ĠthÃ¡p": 4259,
      "ĠBÃ³ng": 4260,
      "Chi": 4261,
      "ĠMadrid": 4262,
      "ĠTrá»Ŀi": 4263,
      "á»Ńu": 4264,
      "ĠcháºŃu": 4265,
      "ÃģC": 4266,
      "ĠgáºŃt": 4267,
      "Ġinch": 4268,
      "ĠÄĲT": 4269,
      "The": 4270,
      "MÃ£": 4271,
      "ize": 4272,
      "Ġkhá»Ń": 4273,
      "press": 4274,
      "PS": 4275,
      "Ġsan": 4276,
      "ire": 4277,
      "Ġchinh": 4278,
      "IT": 4279,
      "69": 4280,
      "ĠMÃł": 4281,
      "ĠmÃ²": 4282,
      "Ġsmartphone": 4283,
      "áº·m": 4284,
      "ĠThÃ¢n": 4285,
      "ĠTS": 4286,
      "Ġinox": 4287,
      "ĠxÃ´ng": 4288,
      "ĠcÃ´n": 4289,
      "ĠPhÆ°á»£ng": 4290,
      "ĠCamp": 4291,
      "ĠHoÃłi": 4292,
      "Ġhang": 4293,
      "Há»Ļi": 4294,
      "Ġnháº§m": 4295,
      "ĠÄĳá»Ĺ": 4296,
      "Ġgiam": 4297,
      "Æ¯ÆłNG": 4298,
      "Ġmini": 4299,
      "ĠMalaysia": 4300,
      "ĠThá»ĭnh": 4301,
      "by": 4302,
      "á»ıa": 4303,
      "ĠchÃ¬m": 4304,
      "ļI": 4305,
      "ĠHar": 4306,
      "ĠVÃ´": 4307,
      "ĠMicro": 4308,
      "Ġ37": 4309,
      "ero": 4310,
      "ĠmÃ©t": 4311,
      "ÄĲÃ¡nh": 4312,
      "ote": 4313,
      "ĠrÃło": 4314,
      "ali": 4315,
      "ĠNguyá»ĩt": 4316,
      "aph": 4317,
      "ene": 4318,
      "Thanh": 4319,
      "ĠSÄ©": 4320,
      "ĠdÃ²": 4321,
      "per": 4322,
      "aster": 4323,
      "Ġmá»ķ": 4324,
      "ĠTÃ¡c": 4325,
      "gr": 4326,
      "LÃºc": 4327,
      "ĠCÃ¢y": 4328,
      "Ngay": 4329,
      "ĠTháº¡ch": 4330,
      "Ġhao": 4331,
      "PhÃ²ng": 4332,
      "Ġnhá»ī": 4333,
      "mar": 4334,
      "Khu": 4335,
      "ĠHe": 4336,
      "ĠKiáº¿m": 4337,
      "lu": 4338,
      "ĠSiÃªu": 4339,
      "ĠTÃº": 4340,
      "Ġdáº¡i": 4341,
      "ĠBÄĲ": 4342,
      "ĠÂ·": 4343,
      "ANG": 4344,
      "ĠhoÃł": 4345,
      "Ľn": 4346,
      "ÄĲá»įc": 4347,
      "Máº«u": 4348,
      "ĠCÃĶNG": 4349,
      "Thá»§": 4350,
      "áº¢N": 4351,
      "ĠHuá»³nh": 4352,
      "va": 4353,
      "IÃĬN": 4354,
      "ĠlÆ°á»¡ng": 4355,
      "ĠDÆ°á»£c": 4356,
      "Ġnghá»ĭch": 4357,
      "ĠTá»ĳt": 4358,
      "IV": 4359,
      "Ġváº£": 4360,
      "ĠHÃ´m": 4361,
      "ĠngoÃ¡i": 4362,
      "trong": 4363,
      "Ġtang": 4364,
      "ĠHá»Ĺ": 4365,
      "ĠRáº¥t": 4366,
      "Ġkg": 4367,
      "ann": 4368,
      "ĠBÆ°á»Ľc": 4369,
      "Thu": 4370,
      "Ġtriá»ģu": 4371,
      "PhÆ°Æ¡ng": 4372,
      "Ġen": 4373,
      "ĠNo": 4374,
      "Ġkáº½": 4375,
      "ĠÃ´n": 4376,
      "ĠhÅ©": 4377,
      "ĠChr": 4378,
      "UYá»": 4379,
      "67": 4380,
      "ĠThÃªm": 4381,
      "Ġtá»Ľ": 4382,
      "ĠChÃ¡nh": 4383,
      "eck": 4384,
      "ory": 4385,
      "ĠMU": 4386,
      "soft": 4387,
      "Ġhung": 4388,
      "ivers": 4389,
      "CB": 4390,
      "ONG": 4391,
      "ĠTÃ¹ng": 4392,
      "iá»ģng": 4393,
      "AG": 4394,
      "áº®": 4395,
      "VÄĥn": 4396,
      "ĠvÆ°á»Ľng": 4397,
      "Ġláº¥p": 4398,
      "Quy": 4399,
      "âĢ¦âĢ¦âĢ¦âĢ¦": 4400,
      "ĠgiÃ¡n": 4401,
      "ownload": 4402,
      "Ġbá»ıng": 4403,
      "Ã½t": 4404,
      "ĮC": 4405,
      "ĠnÆ°Æ¡ng": 4406,
      "ĠBay": 4407,
      "NhÃ¢n": 4408,
      "ĠÄĳiÃªn": 4409,
      "opy": 4410,
      "wit": 4411,
      "ĠTháº©m": 4412,
      "ĠtrÃłng": 4413,
      "de": 4414,
      "Ġnang": 4415,
      "orm": 4416,
      "ĠlÄĥng": 4417,
      "Hoa": 4418,
      "Ġchuá»ĳi": 4419,
      "ĠIS": 4420,
      "ohn": 4421,
      "Ġtá»ıi": 4422,
      "TO": 4423,
      "ĠTim": 4424,
      "ĠÄĳáº¡n": 4425,
      "kho": 4426,
      "300": 4427,
      "ta": 4428,
      "))": 4429,
      "Ġle": 4430,
      "Ġmáº¯m": 4431,
      "ĠOr": 4432,
      "ĠXuáº¥t": 4433,
      "Ġ99": 4434,
      "Cáº§n": 4435,
      "ĠTá»·": 4436,
      "Ġsáº¹o": 4437,
      "ĠHá»ĵi": 4438,
      "Ġláº¡m": 4439,
      "Ġcháº©n": 4440,
      "GT": 4441,
      "Ġthá»ķi": 4442,
      "Ġnháº¯m": 4443,
      "udio": 4444,
      "Ġnáº¯p": 4445,
      "ï¸": 4446,
      "ĠCáº©m": 4447,
      "ĠTrá»ĭnh": 4448,
      "ley": 4449,
      "ĠsÆ°á»Ľng": 4450,
      "Ġven": 4451,
      "ĠBÃłn": 4452,
      "Báº£n": 4453,
      "Ġyou": 4454,
      "ĠTáº¡o": 4455,
      "Ġkhiáº¿u": 4456,
      "Ġnhá»©c": 4457,
      "ĠHáº¡nh": 4458,
      "ĠMÃłu": 4459,
      "ĠlÃŃt": 4460,
      "aser": 4461,
      "Ġkhoai": 4462,
      "Ġvn": 4463,
      "dr": 4464,
      "port": 4465,
      "ĠAP": 4466,
      "page": 4467,
      "Cuá»Ļc": 4468,
      "ĠÄĳáº»": 4469,
      "ĠphÆ¡i": 4470,
      "Ġres": 4471,
      "omes": 4472,
      "ÄĲiá»ĥm": 4473,
      "ĠtrÄĥng": 4474,
      "ĠÄĳáº§m": 4475,
      "Ġmá»Ļc": 4476,
      "65": 4477,
      "Ġcá»ĵn": 4478,
      "Ġviet": 4479,
      "ĠChelsea": 4480,
      "ji": 4481,
      "Ġstr": 4482,
      "ĠvÄ©nh": 4483,
      "Báº£o": 4484,
      "Ġmod": 4485,
      "ĠOp": 4486,
      "Ġbá»ī": 4487,
      "ance": 4488,
      "ĠâĢĭ": 4489,
      "Ta": 4490,
      "ĠThÃŃch": 4491,
      "2010": 4492,
      "ĠmÆ°á»£t": 4493,
      "Ġdáº¯t": 4494,
      "má»Ļt": 4495,
      "outube": 4496,
      "ĠDiá»ĩn": 4497,
      "Du": 4498,
      "ĠÄĳÃ¢m": 4499,
      "ĠVá»": 4500,
      "onesia": 4501,
      "ï¸ı": 4502,
      "Ġrá»ĵng": 4503,
      "ĠPháº£i": 4504,
      "ĠTuyÃªn": 4505,
      "ĠCuá»ĳi": 4506,
      "ĠÄĲáº·ng": 4507,
      "Ġmm": 4508,
      "TÃ¡c": 4509,
      "áº¬T": 4510,
      "BC": 4511,
      "KH": 4512,
      "Ġpháº³ng": 4513,
      "HÃ´m": 4514,
      "ĠPV": 4515,
      "ĠlÃ¹ng": 4516,
      "ĠQuÃ¡n": 4517,
      "ĠYáº¿n": 4518,
      "hip": 4519,
      "ĠdÃ¢ng": 4520,
      "Ġman": 4521,
      "á»µ": 4522,
      "ĠchÃ¨": 4523,
      "Ġrá»ĳt": 4524,
      "ĠBáº£y": 4525,
      "ĠsÃ¢m": 4526,
      "ek": 4527,
      "Ġ120": 4528,
      "ĠXanh": 4529,
      "ĠvÃ¡ch": 4530,
      "ĠNhÃ¬n": 4531,
      "Ġdáº¡o": 4532,
      "Chá»ĭ": 4533,
      "ĠMiá»ģn": 4534,
      "ĠTháº¡nh": 4535,
      "ĠMo": 4536,
      "RO": 4537,
      "ĠlÃ¹i": 4538,
      "ĠNÆ¡i": 4539,
      "ĠgÅ©i": 4540,
      "Ġcáº¯n": 4541,
      "ÃĴ": 4542,
      "ĠTháº¥t": 4543,
      "Ġngá»©a": 4544,
      "NN": 4545,
      "ĠGiá»Ŀ": 4546,
      "ĠcÃ¡m": 4547,
      "ĠCen": 4548,
      "ĠthoÃ¡i": 4549,
      "Iá»ĨT": 4550,
      "Ġblog": 4551,
      "ĠKhuyáº¿n": 4552,
      "ĠHotline": 4553,
      "ĠClub": 4554,
      "Ġá»ĳp": 4555,
      "ĠÆ°ng": 4556,
      "yo": 4557,
      "LÄĲ": 4558,
      "Ġtivi": 4559,
      "iel": 4560,
      "Tham": 4561,
      "ĠTuyáº¿t": 4562,
      "oyota": 4563,
      "ĠÃģo": 4564,
      "ĠPrem": 4565,
      "ollagen": 4566,
      "eu": 4567,
      "ĠChamp": 4568,
      "ĠHi": 4569,
      "ĠðŁ": 4570,
      "ĠgÃ£": 4571,
      "Ġ=>": 4572,
      "ĠTrinh": 4573,
      "Ġquá»·": 4574,
      "á»Ķ": 4575,
      "Ġbom": 4576,
      "Ġgiá»įt": 4577,
      "ĠÄĳá»Ľn": 4578,
      "Ġláº·p": 4579,
      "ĠStr": 4580,
      "ĠtrÃ¢n": 4581,
      "ĠtrÄ©": 4582,
      "Ġxá»īu": 4583,
      "áº¿m": 4584,
      "ĠrÃł": 4585,
      "pool": 4586,
      "PL": 4587,
      "ĠMÃ´i": 4588,
      "Ġdown": 4589,
      "Ġ2009": 4590,
      "aig": 4591,
      "ĠsÆ°Æ¡ng": 4592,
      "ĠPhilipp": 4593,
      "ild": 4594,
      "uchia": 4595,
      "ĠAt": 4596,
      "Ġwifi": 4597,
      "TÃ¬nh": 4598,
      "Ġlá»©a": 4599,
      "ĠÃ³c": 4600,
      "ĠxÃł": 4601,
      "84": 4602,
      "ĠÃ¢u": 4603,
      "ĠIt": 4604,
      "ĠEuro": 4605,
      "ĠNhÆ¡n": 4606,
      "ĠCáº¥p": 4607,
      "ĠCÃł": 4608,
      "Ġquáº·ng": 4609,
      "87": 4610,
      "âľ": 4611,
      "ĠTáº§n": 4612,
      "rom": 4613,
      "NT": 4614,
      "ĠSá»©c": 4615,
      "ĠÄĳá»ĵi": 4616,
      "Iá»ĨN": 4617,
      "ĠBitcoin": 4618,
      "mÃ¡y": 4619,
      "ĠNghiÃªn": 4620,
      "ĠÄĲáº¹p": 4621,
      "ery": 4622,
      "een": 4623,
      "vent": 4624,
      "lymp": 4625,
      "Ġháº£": 4626,
      "Ġ250": 4627,
      "Ġváº¥t": 4628,
      "ĠNguá»ĵn": 4629,
      "áº¦N": 4630,
      "ĠTuá»ķi": 4631,
      "NhÃ¬n": 4632,
      "ĠYou": 4633,
      "ĠnhÄĥn": 4634,
      "iu": 4635,
      "Ġrao": 4636,
      "ĠThiáº¿u": 4637,
      "Ġslot": 4638,
      "kra": 4639,
      "ĠTÃªn": 4640,
      "ĠsÆ°ng": 4641,
      "Má»¹": 4642,
      "Nguyá»ħn": 4643,
      "ss": 4644,
      "ĠdÆ°a": 4645,
      "Máº·t": 4646,
      "AP": 4647,
      "Ġmarketing": 4648,
      "ĠBáº£ng": 4649,
      "Ġthá»ĭnh": 4650,
      "Ġhá»Ł": 4651,
      "ĠbuÃ´ng": 4652,
      "ĠUnited": 4653,
      "Ġhoan": 4654,
      "Ġá»¨ng": 4655,
      "Iá»Ģ": 4656,
      "ĠCháº³ng": 4657,
      "HO": 4658,
      "ĠGÃ¬": 4659,
      "ĠTrÃ¬nh": 4660,
      "MÃ¬nh": 4661,
      "Ġ600": 4662,
      "CáºŃp": 4663,
      "tÃ´": 4664,
      "RE": 4665,
      "ĠTáº¿": 4666,
      "ĠHonda": 4667,
      "ria": 4668,
      "TÃŃnh": 4669,
      "ĠQuáº£": 4670,
      "Ġhá»¥": 4671,
      "anc": 4672,
      "ĠKiÃªn": 4673,
      "Ġmáº·n": 4674,
      "ĠPlus": 4675,
      "erm": 4676,
      "ĠvÃº": 4677,
      "Ġlá»Ļn": 4678,
      "tin": 4679,
      "ĠNhu": 4680,
      "COM": 4681,
      "ĠSal": 4682,
      "razil": 4683,
      "ĠthÃ¬a": 4684,
      "ĠViettel": 4685,
      "ĠxÃło": 4686,
      "ĠKhai": 4687,
      "ĠSÃ²ng": 4688,
      "ĠEU": 4689,
      "ĠWh": 4690,
      "Lu": 4691,
      "Ġ33": 4692,
      "ĠEnter": 4693,
      "ti": 4694,
      "Ġrá»ī": 4695,
      "Ġcuá»Ļn": 4696,
      "inc": 4697,
      "TÃªn": 4698,
      "ĠgÃ¡nh": 4699,
      "Ġtuyáº¿t": 4700,
      "EAN": 4701,
      "ll": 4702,
      "Ġrá»¥ng": 4703,
      "FA": 4704,
      "iverpool": 4705,
      "Ġgai": 4706,
      "Ġrun": 4707,
      "Ġlá»įt": 4708,
      "ĠBá»ĭ": 4709,
      "ĠláºŃu": 4710,
      "ĠLáºŃp": 4711,
      "Ġham": 4712,
      "Kho": 4713,
      "ĠgiÃ²n": 4714,
      "Hot": 4715,
      "ĠngÆ°": 4716,
      "ĠmÅ©": 4717,
      "ĠTrÃ¡i": 4718,
      "ĠHÃ¡n": 4719,
      "enc": 4720,
      "Danh": 4721,
      "Ġ55": 4722,
      "Ġlá»ģ": 4723,
      "ĠnÃ©m": 4724,
      "ĠghÃ©t": 4725,
      "Camera": 4726,
      "ĠHS": 4727,
      "Ġ2008": 4728,
      "senal": 4729,
      "CD": 4730,
      "Ġhom": 4731,
      "ĠNháº¡c": 4732,
      "ĠnghiÃªng": 4733,
      "ĠXuyÃªn": 4734,
      "oker": 4735,
      "ĠOlymp": 4736,
      "Ġdai": 4737,
      "uan": 4738,
      "cho": 4739,
      "Ġao": 4740,
      "Ġtre": 4741,
      "Ġnháº¥p": 4742,
      "ĠÄĳáº¯n": 4743,
      "ĠLED": 4744,
      "ĠSÃ¡ch": 4745,
      "Ġnguyá»ĩt": 4746,
      "ane": 4747,
      "que": 4748,
      "ĠÃģnh": 4749,
      "ĠkhoÄĥn": 4750,
      "ĠTai": 4751,
      "arb": 4752,
      "ĠhoÃłi": 4753,
      "ĠSup": 4754,
      "ĠLÃ£nh": 4755,
      "Ġhiáº¿u": 4756,
      "ÄĲÃ³": 4757,
      "Ġlogo": 4758,
      "ĠHÄĲND": 4759,
      "ĠTrá»±c": 4760,
      "Sá»Ł": 4761,
      "ĠÐ": 4762,
      "Gia": 4763,
      "sk": 4764,
      "Ġ48": 4765,
      "ÃĢI": 4766,
      "ĠFPT": 4767,
      "ĠmÃ´ng": 4768,
      "ĠTÆ°á»Ŀng": 4769,
      "ĠBlack": 4770,
      "ĠÄĲiá»ģn": 4771,
      "Ġngá»£i": 4772,
      "ola": 4773,
      "Le": 4774,
      "Ġvisa": 4775,
      "ĠbÄĥn": 4776,
      "Ġyáº¿n": 4777,
      ",\"": 4778,
      "ital": 4779,
      "Ġ75": 4780,
      "ĠMil": 4781,
      "ĠGIÃģ": 4782,
      "ĠchÆ°ng": 4783,
      "Email": 4784,
      "Chia": 4785,
      "ĠNa": 4786,
      "sm": 4787,
      "Ġprotein": 4788,
      "ĠlÆ°á»Ŀng": 4789,
      "Web": 4790,
      "Ġxoa": 4791,
      "Ġ88": 4792,
      "ĠLá»Ŀi": 4793,
      "ĠCal": 4794,
      "Ġfacebook": 4795,
      "ĠÄĳun": 4796,
      "Game": 4797,
      "ĠMobile": 4798,
      "áº¿ch": 4799,
      "erc": 4800,
      "ÄĲÃ£": 4801,
      "ational": 4802,
      "Ġcomment": 4803,
      "ĠRo": 4804,
      "Ġdá»ĳc": 4805,
      "ĠgÃ¬n": 4806,
      "ĠMarketing": 4807,
      "mg": 4808,
      "Ġváº¯c": 4809,
      "ĠdáºŃp": 4810,
      "Ġkhoáº£nh": 4811,
      "ĠÄĳiá»ģn": 4812,
      "Â»": 4813,
      "ĠMá»": 4814,
      "ĠkhÃŃa": 4815,
      "ĠMá»Ł": 4816,
      "ĠMÃ´n": 4817,
      "Ġcá»§ng": 4818,
      "So": 4819,
      "ĠFull": 4820,
      "ĠQuyá»ģn": 4821,
      "ĠCor": 4822,
      "ĠtÃ¹ng": 4823,
      "ĠSeo": 4824,
      "tor": 4825,
      "ĠÄĲáº¿": 4826,
      "ĠRob": 4827,
      "ĠCá»¦": 4828,
      "Ġmáº¹o": 4829,
      "ĠnhÅ©ng": 4830,
      "EC": 4831,
      "GS": 4832,
      "ĠnhÃ£": 4833,
      "ĠVáº¥n": 4834,
      "ĠCáºŃp": 4835,
      "ĠÄĳá»¥ng": 4836,
      "ĠâĢĭâĢĭ": 4837,
      "ĠThá»«a": 4838,
      "Ġsanh": 4839,
      "ĠMon": 4840,
      "ĠÄĲá»įc": 4841,
      "Ġsá»ĳc": 4842,
      "ĠxÃ¡m": 4843,
      "Ġse": 4844,
      "ĠÄĲáº¡t": 4845,
      "Ġngoan": 4846,
      "tra": 4847,
      "Ġká»ī": 4848,
      "áº¶": 4849,
      "ä¸": 4850,
      "ĠNghiá»ĩp": 4851,
      "SI": 4852,
      "Ġchip": 4853,
      "Ġná»ĳt": 4854,
      "Ãĥ": 4855,
      "Ġti": 4856,
      "ĠchÃªnh": 4857,
      "ngh": 4858,
      "ĠTÃ¹y": 4859,
      "Ġrá»Ļn": 4860,
      "ĠhÃ²n": 4861,
      "Ġtem": 4862,
      "Ġbar": 4863,
      "ÄĲá»Ļi": 4864,
      "ChuyÃªn": 4865,
      "Ġit": 4866,
      "ĠIndonesia": 4867,
      "Ġ2000": 4868,
      "ĠUkra": 4869,
      "ĠCá»ĳ": 4870,
      "ĠHáº§u": 4871,
      "ĠCá»¦A": 4872,
      "NÆ°á»Ľc": 4873,
      "ĠMau": 4874,
      "na": 4875,
      "Qua": 4876,
      "ĠVáºŃn": 4877,
      "ĠCá»©": 4878,
      "ĠTÃ´ng": 4879,
      "gia": 4880,
      "Ġthoáº£ng": 4881,
      "ĠToÃ¡n": 4882,
      "Ġtá»±u": 4883,
      "Iá»Ĥ": 4884,
      "ĠtÃ¡m": 4885,
      "Ġre": 4886,
      "ĠNiÃªn": 4887,
      "ĠvÃ¡n": 4888,
      "ĠNÄĥng": 4889,
      "UNG": 4890,
      "ason": 4891,
      "ĠmÆ°á»£n": 4892,
      "ĠThiá»ĩn": 4893,
      "Ãºm": 4894,
      "ĠOff": 4895,
      "Ġcode": 4896,
      "ĠCampuchia": 4897,
      "Cháº¥t": 4898,
      "ember": 4899,
      "ĠMin": 4900,
      "ari": 4901,
      "ĠTháºŃm": 4902,
      "ĠGiÃºp": 4903,
      "ĠÄĲáº£o": 4904,
      "TáºŃp": 4905,
      "Ġ<": 4906,
      "accine": 4907,
      "ĠlÃ¢n": 4908,
      "Ġráº¯c": 4909,
      "Tráº£": 4910,
      "Soi": 4911,
      "Ġdáº»o": 4912,
      "ĠPlay": 4913,
      "ĠMÃ¹a": 4914,
      "Ġhiá»ģn": 4915,
      "ĠJohn": 4916,
      "Ġbá»Ļi": 4917,
      "ĠVal": 4918,
      "ĠCá»Ńu": 4919,
      "áº¬N": 4920,
      "ĠBÄĲS": 4921,
      "ÃģCH": 4922,
      "oly": 4923,
      "Ġdá»ĵi": 4924,
      "Ã²m": 4925,
      "Ġngá»¥": 4926,
      "ĠvÃ³c": 4927,
      "ings": 4928,
      "ĠUSB": 4929,
      "Ġwith": 4930,
      "Ġex": 4931,
      "ĠWin": 4932,
      "LÃ½": 4933,
      "Cá»¥": 4934,
      "ron": 4935,
      "Chá»įn": 4936,
      "Ġáº¥p": 4937,
      "ĠThÄĥng": 4938,
      "agon": 4939,
      "Ġuá»ĳn": 4940,
      "Co": 4941,
      "arao": 4942,
      "Ġyáº¿t": 4943,
      "Báº£ng": 4944,
      "MP": 4945,
      "che": 4946,
      "ts": 4947,
      "ĠcÆ°á»¡ng": 4948,
      "ĠThuá»ĳc": 4949,
      "vÃł": 4950,
      "Chiá»ģu": 4951,
      "Ã¹n": 4952,
      "ĠCá»ķng": 4953,
      "ĠSpa": 4954,
      "ĠWord": 4955,
      "Má»įi": 4956,
      "ĠSte": 4957,
      "TR": 4958,
      "Ġoff": 4959,
      "gh": 4960,
      "ĠLÆ°á»£ng": 4961,
      "ĠBrazil": 4962,
      "ĠChá»©ng": 4963,
      "Ġthuáº«n": 4964,
      "thor": 4965,
      "sc": 4966,
      "ĠVáºŃt": 4967,
      "ives": 4968,
      "ĠNews": 4969,
      "ĠthÃ¨m": 4970,
      "Ġcá»Ĺ": 4971,
      "LC": 4972,
      "âĢ¦\"": 4973,
      "CÃ¡i": 4974,
      "ĠVideo": 4975,
      "ĠToyota": 4976,
      "Ba": 4977,
      "76": 4978,
      "Ġtrá»į": 4979,
      "ĠÄĲan": 4980,
      "Ġnáº£y": 4981,
      "',": 4982,
      "ĠYork": 4983,
      "CÄĥn": 4984,
      "HÆ¡n": 4985,
      "ĠsÃ©t": 4986,
      "qua": 4987,
      "Ġchay": 4988,
      "ĠAng": 4989,
      "TÆ°": 4990,
      "ĠHiá»ģn": 4991,
      "Há»ĵ": 4992,
      "ĠThuáºŃt": 4993,
      "Ġtrá»«ng": 4994,
      "Ġ34": 4995,
      "ĠPhilippines": 4996,
      "ĠÄĳoáº£n": 4997,
      "ĠÄĳc": 4998,
      "Ġhá»¥t": 4999,
      "Posted": 5000,
      "ĠTik": 5001,
      "ĠTay": 5002,
      "Xin": 5003,
      "Ġkháº½": 5004,
      "arm": 5005,
      "ÄĲÆ°á»Ŀng": 5006,
      "ĠBang": 5007,
      "ĠnÃ´n": 5008,
      "Pr": 5009,
      "ner": 5010,
      "ĠLÆ°á»£t": 5011,
      "ĠbÆ¡": 5012,
      "ĠChampions": 5013,
      "ĠPan": 5014,
      "Ġcáº¯p": 5015,
      "giá»": 5016,
      "náº¿u": 5017,
      "PhÃ¢n": 5018,
      "ĠluÃ¢n": 5019,
      "ĠkhoÃ¡": 5020,
      "ĠCasino": 5021,
      "ĠWebsite": 5022,
      "ĠBlog": 5023,
      "ĠHáº¯n": 5024,
      "ĠShi": 5025,
      "ĠkhÃ©p": 5026,
      "Má»Ľi": 5027,
      "Ġcuá»ĵng": 5028,
      "ĠtÃª": 5029,
      "TiÃªu": 5030,
      "ĠchÃ¡o": 5031,
      "ĠPhá»§": 5032,
      "AND": 5033,
      "OR": 5034,
      "nhÃł": 5035,
      "TX": 5036,
      "á»£t": 5037,
      "ĠMess": 5038,
      "ĠSen": 5039,
      "QÄĲ": 5040,
      "thi": 5041,
      "ï¼": 5042,
      "Ġnhá»Ł": 5043,
      "Ġnáº¡i": 5044,
      "ĠÄĳá»įng": 5045,
      "ĠkhoÃ¡i": 5046,
      "Ġthoa": 5047,
      "ĠÆ¯": 5048,
      "ÃĢN": 5049,
      "DÃ¢n": 5050,
      "ĠASEAN": 5051,
      "Ġváº¡ch": 5052,
      "ĠVáº¡n": 5053,
      "ĠvÃ¢y": 5054,
      "ĠGh": 5055,
      "St": 5056,
      "ĠkÃ©p": 5057,
      "ka": 5058,
      "ĠMod": 5059,
      "Ġchá»£t": 5060,
      "SN": 5061,
      "rl": 5062,
      "ĠCháº¯c": 5063,
      "td": 5064,
      "ĠlÃª": 5065,
      "ĠBÃ¡nh": 5066,
      "ĠÆ¯u": 5067,
      "ĠHÃłm": 5068,
      "ĠSch": 5069,
      "Chu": 5070,
      "78": 5071,
      "á»ĩm": 5072,
      "ĠlÃ©o": 5073,
      "ise": 5074,
      "ĠVill": 5075,
      "ĠDá»¥ng": 5076,
      "FF": 5077,
      "Ġná»©t": 5078,
      "Ġpr": 5079,
      "araoke": 5080,
      "ĠTá»©c": 5081,
      "les": 5082,
      "Ġ49": 5083,
      "sinh": 5084,
      "ĠBáº¡c": 5085,
      "ĠkiÃªng": 5086,
      "work": 5087,
      "ya": 5088,
      "ĠVua": 5089,
      "Cuá»ĳi": 5090,
      "oga": 5091,
      "/.": 5092,
      "Ġquyá»ĥn": 5093,
      "Ãºn": 5094,
      "ĠThÃ¡p": 5095,
      "Æ¯á»¢": 5096,
      "ĠRá»ĵi": 5097,
      "Ġ1000": 5098,
      "ĠcÃºi": 5099,
      "ĠNgÃ£i": 5100,
      "Ġlung": 5101,
      "Ġwww": 5102,
      "PH": 5103,
      "cÃ¡c": 5104,
      "Ġ65": 5105,
      "able": 5106,
      "ĠKhang": 5107,
      "ita": 5108,
      "MS": 5109,
      "Ġkhuy": 5110,
      "400": 5111,
      "Ġhotline": 5112,
      "di": 5113,
      "ĠParis": 5114,
      "ĠhÆ°u": 5115,
      "ĠArsenal": 5116,
      "ĠÄĳÃ²n": 5117,
      "ĠBÃ¡ch": 5118,
      "Ġcá»į": 5119,
      "âĢĶâĢĶ": 5120,
      "ence": 5121,
      "ĠrÃ¡p": 5122,
      "áº¾T": 5123,
      "QuÃ½": 5124,
      "=\"": 5125,
      "ĠThÃºy": 5126,
      "Ġclub": 5127,
      "ĠCu": 5128,
      "ĠLiverpool": 5129,
      "ĠGiÃªsu": 5130,
      "áº¢I": 5131,
      "Ġláº§u": 5132,
      "Ġláº¥n": 5133,
      "ĠlÆ°á»Ľt": 5134,
      "iano": 5135,
      "Æ¯á»ļ": 5136,
      "ĠSyria": 5137,
      "Ġkiá»ĩt": 5138,
      "ĠcÆ°ng": 5139,
      "ĠGrand": 5140,
      "ĠnhÃ¬": 5141,
      "DÆ°á»Ľi": 5142,
      "ĠVND": 5143,
      "gmail": 5144,
      "Ġvaccine": 5145,
      "phcm": 5146,
      "ĠláºŃt": 5147,
      "ĠchiÃªm": 5148,
      "ĠCháº¿": 5149,
      "ĠThá»©c": 5150,
      "Ġxá»ĭt": 5151,
      "ĠChÆ°a": 5152,
      "Ġdá»ĳi": 5153,
      "Iáº¾T": 5154,
      "Cáº£m": 5155,
      "ĠLáº§n": 5156,
      "ĠtÃ²": 5157,
      "Com": 5158,
      "ĠhÃ¡i": 5159,
      "SD": 5160,
      "ĠTrÃºc": 5161,
      "ĠbÃ³p": 5162,
      "win": 5163,
      "oth": 5164,
      "Ġdownload": 5165,
      "ĠBÃ¡": 5166,
      "IA": 5167,
      "ĠSH": 5168,
      "Ġcanxi": 5169,
      "HÃłng": 5170,
      "onaldo": 5171,
      "Ban": 5172,
      "ĠCá»Ŀ": 5173,
      "TÃłi": 5174,
      "ĠKit": 5175,
      "ĠlÅ©y": 5176,
      "ĠViáº¿t": 5177,
      "ĠgÃµ": 5178,
      "ĠCáºŃu": 5179,
      "ĠKá»·": 5180,
      "aul": 5181,
      "ustral": 5182,
      "Ġsc": 5183,
      "Ġcá»±": 5184,
      "ĠcÃłnh": 5185,
      "ĠchÃ¡nh": 5186,
      "ĠiOS": 5187,
      "Ġngá»Ļt": 5188,
      "ision": 5189,
      "bum": 5190,
      "ĠÄĲiá»ĥn": 5191,
      "ĠÄĳáº¯ng": 5192,
      "Ġset": 5193,
      "ĠMicrosoft": 5194,
      "Ġdiá»ĩu": 5195,
      "ĠBi": 5196,
      "NÃªn": 5197,
      "iga": 5198,
      "Ġrá»ħ": 5199,
      "âĤ«": 5200,
      "tainment": 5201,
      "Ġráº¡ng": 5202,
      "ĠCai": 5203,
      "ĠMáº¡c": 5204,
      "Ġcá»įc": 5205,
      "Pad": 5206,
      "Tags": 5207,
      "ĠPal": 5208,
      "Báº¥t": 5209,
      "Ġnhang": 5210,
      "sub": 5211,
      "ĠÄĳáº¡m": 5212,
      "ĠÄĳáº·n": 5213,
      "Quáº£ng": 5214,
      "ĠcÃºp": 5215,
      "ĠMax": 5216,
      "duc": 5217,
      "ife": 5218,
      "ena": 5219,
      "Æ¯á»ľNG": 5220,
      "Bank": 5221,
      "ĠthÆ°a": 5222,
      "ĠÄĳan": 5223,
      "xin": 5224,
      "ĠBÄĥng": 5225,
      "Ġtá»ĩp": 5226,
      "Ġmanh": 5227,
      "GD": 5228,
      "EA": 5229,
      "Ġfull": 5230,
      "ĠÄĲÃ´i": 5231,
      "za": 5232,
      "Vá»ĭ": 5233,
      "Ġbet": 5234,
      "ĠngÃ´": 5235,
      "Ġsuá»ĳi": 5236,
      "Ġdáº¹p": 5237,
      "ĠMiá»ħn": 5238,
      "63": 5239,
      "chi": 5240,
      "icon": 5241,
      "Ġhoáº¡i": 5242,
      "ĠSÃ¡t": 5243,
      "ĠÄĳÃłnh": 5244,
      "Ġsá»ıi": 5245,
      "Link": 5246,
      "Ġas": 5247,
      "ĠBen": 5248,
      "Ġ2007": 5249,
      "red": 5250,
      "arden": 5251,
      "Ġlui": 5252,
      "ura": 5253,
      "64": 5254,
      "Ġnew": 5255,
      "ĠView": 5256,
      "Ġluá»ĵng": 5257,
      "ĠTN": 5258,
      "ÄĲá»«ng": 5259,
      "TháºŃt": 5260,
      "Ġme": 5261,
      "á»¥a": 5262,
      "ĠTÆ°Æ¡ng": 5263,
      "Ġmáº¡": 5264,
      "Ġbáº¥y": 5265,
      "Thá»ĥ": 5266,
      "Máº¹": 5267,
      "ĠHong": 5268,
      "ĠsÆ°á»Ŀn": 5269,
      "ĠTruyá»ĩn": 5270,
      "Ġspa": 5271,
      "ĠNAM": 5272,
      "Ġá»§": 5273,
      "uoc": 5274,
      "ĠSam": 5275,
      "Ġsá»ī": 5276,
      "mer": 5277,
      "ĠngÆ°ng": 5278,
      "witter": 5279,
      "888": 5280,
      "ĠChá»£": 5281,
      "ĠbÃ¡ch": 5282,
      "Táº£i": 5283,
      "Ġnáº¿n": 5284,
      "ĠEntertainment": 5285,
      "Ġbo": 5286,
      "ĠSá»ĳng": 5287,
      "Ġxen": 5288,
      "ĠHá»ĮC": 5289,
      "âĸ": 5290,
      "ĠrÃ¡o": 5291,
      "ĠvÃ²i": 5292,
      "Ġkiáº¿p": 5293,
      "ĠKÃŃch": 5294,
      "phim": 5295,
      "ger": 5296,
      "ÄĲi": 5297,
      "ĠHP": 5298,
      "ĠGiáº£m": 5299,
      "ĠTáºłI": 5300,
      "Ġtráº¯c": 5301,
      "news": 5302,
      "Phim": 5303,
      "Ġdá»ĵn": 5304,
      "ĠkhÆ¡i": 5305,
      "be": 5306,
      "ĠBÃŃch": 5307,
      "ĠÄĳáº¯m": 5308,
      "ĠHiáº¿u": 5309,
      "Ġmá»īm": 5310,
      "TN": 5311,
      "ical": 5312,
      "á»®": 5313,
      "ĠNhÄ©": 5314,
      "72": 5315,
      "igh": 5316,
      "ĠxÃ¬": 5317,
      "ody": 5318,
      "ĠdÃ£y": 5319,
      "ĠLiá»ĩu": 5320,
      "Ġmy": 5321,
      "ĠtrÃ¢u": 5322,
      "ĠÄĲÃłn": 5323,
      "ĠÄĲá»ķi": 5324,
      "ĠÄĲÃºng": 5325,
      "lÃłm": 5326,
      "Tá»·": 5327,
      "ĠgÃ£y": 5328,
      "ĠÄĳá»©t": 5329,
      "ĠÄĲáº¯k": 5330,
      "undai": 5331,
      "QG": 5332,
      "Ġ64": 5333,
      "Ġus": 5334,
      "'.": 5335,
      "ÃĻ": 5336,
      "ĠâĢĶ": 5337,
      "Ġphanh": 5338,
      "ĠBÃ©": 5339,
      "ĠPet": 5340,
      "ĠNov": 5341,
      "pt": 5342,
      "ĠTráº¡ch": 5343,
      "Ġ800": 5344,
      "ĠBo": 5345,
      "ĠComp": 5346,
      "onald": 5347,
      "ĠHiá»ĥu": 5348,
      "Ġngá»±": 5349,
      "á»Ńng": 5350,
      "ĠMÃ³n": 5351,
      "ĠPhá»¥c": 5352,
      "ĠNghi": 5353,
      "ĠPháº©m": 5354,
      "ĠchÃª": 5355,
      "CL": 5356,
      "Ġnghiá»ĩn": 5357,
      "Ġtá»¥ng": 5358,
      "Ġvá»ĭt": 5359,
      "Ġtest": 5360,
      "ĠOne": 5361,
      "ĠgÃłng": 5362,
      "800": 5363,
      "lin": 5364,
      "ĠrÃ¨m": 5365,
      "ĠPhÃŃ": 5366,
      "ĠGen": 5367,
      "ĠQuÃ¡": 5368,
      "play": 5369,
      "Ġgá»«ng": 5370,
      "ustralia": 5371,
      "600": 5372,
      "Ġdá»Ł": 5373,
      "ĠTráº¯ng": 5374,
      "ater": 5375,
      "ream": 5376,
      "ĠPS": 5377,
      "inho": 5378,
      "ÃģY": 5379,
      "Ġbá»įt": 5380,
      "van": 5381,
      "ĠLink": 5382,
      "ept": 5383,
      "chester": 5384,
      "ĠSP": 5385,
      "Ġtui": 5386,
      "ĠchuÃ´ng": 5387,
      "Ġview": 5388,
      "Ġled": 5389,
      "ĠTáº¡p": 5390,
      "Ġngáº«u": 5391,
      "BA": 5392,
      "ĠmÃºa": 5393,
      "ĠMang": 5394,
      "Ġkiá»ģm": 5395,
      "OL": 5396,
      "ĠCrown": 5397,
      "Ġlen": 5398,
      "ĠdÅ©ng": 5399,
      "ĠgÃ¡c": 5400,
      "ĠBÃ¢y": 5401,
      "ĠChiá»ģu": 5402,
      "ĠAll": 5403,
      "ĠÄĳá»Ľi": 5404,
      "ĠKÃ½": 5405,
      "ĠLá»±c": 5406,
      "ĠUkraine": 5407,
      "ĠtrÃ¡n": 5408,
      "Ġbuá»ĵng": 5409,
      "Ġruá»Ļng": 5410,
      "Ġá´": 5411,
      "Ġthun": 5412,
      "ĠHuá»ĩ": 5413,
      "ĠHÃ£ng": 5414,
      "ĠDiá»ĩu": 5415,
      "ĠxÃ¡": 5416,
      "ĠSÃ´ng": 5417,
      "room": 5418,
      "ĠâĨ": 5419,
      "á»¬": 5420,
      "ĠÄĳiá»ģm": 5421,
      "ĠLand": 5422,
      "Tiá»ĥu": 5423,
      "199": 5424,
      "Ġtáº¡": 5425,
      "ĠÄĳáº¿m": 5426,
      "ĠTre": 5427,
      "TA": 5428,
      "ĠTM": 5429,
      "ĠxÃ´i": 5430,
      "á»Ľn": 5431,
      "ĠmuÃ´n": 5432,
      "ement": 5433,
      "____": 5434,
      "ĠNhÃ³m": 5435,
      "!!!": 5436,
      "ps": 5437,
      "Ġbai": 5438,
      "Website": 5439,
      "ĠbÃ£": 5440,
      "VÃŃ": 5441,
      "Ġvá»Ĺ": 5442,
      "Ġdá»Ļi": 5443,
      "unt": 5444,
      "Ľt": 5445,
      "Ġgáº¯t": 5446,
      "Sao": 5447,
      "DF": 5448,
      "ĠtÆ°á»Ľi": 5449,
      "ĠJo": 5450,
      "Ġnhá»Ŀn": 5451,
      "ĠTok": 5452,
      "ĠTHU": 5453,
      "Ġtrinh": 5454,
      "ĠPremier": 5455,
      "áº¥ng": 5456,
      "ual": 5457,
      "ĠLiÃªm": 5458,
      "Ġdá»ĩt": 5459,
      "Thay": 5460,
      "bi": 5461,
      "Ġdáº·m": 5462,
      "ĠngÃ¢y": 5463,
      "ĠRed": 5464,
      "ĠcÃło": 5465,
      "ĠLee": 5466,
      "Ġvá»Ł": 5467,
      "BÃ¡c": 5468,
      "ban": 5469,
      "Láº¯p": 5470,
      "Ġkhá»ĳng": 5471,
      "ĠmÃ¢u": 5472,
      "inch": 5473,
      "aigon": 5474,
      "ĠQuá»¹": 5475,
      "Ġcáº¡n": 5476,
      "Thuá»ĳc": 5477,
      "ĠChá»©c": 5478,
      "ĠthÃ¡m": 5479,
      "Ġmuá»Ĺng": 5480,
      "Ġ42": 5481,
      "ĠtrÃ¹m": 5482,
      "tá»«": 5483,
      "ĠKháº£": 5484,
      "ĠTY": 5485,
      "Ai": 5486,
      "ĠSÃ³c": 5487,
      "ĠJun": 5488,
      ".âĢĿ": 5489,
      "ĠÃło": 5490,
      "Ġeo": 5491,
      "Há»Ĺ": 5492,
      "ĠnÃ³n": 5493,
      "Ġnhá»ĭn": 5494,
      "HoÃłng": 5495,
      "ĠTrÃ¬": 5496,
      "Ġtriáº¿t": 5497,
      "ĠDáº«n": 5498,
      "á»£p": 5499,
      "ĠÄĳÃŃnh": 5500,
      "ĠhoÃłnh": 5501,
      "Ġcá»Łi": 5502,
      "ĠVan": 5503,
      "earch": 5504,
      "ĠVá»ĩ": 5505,
      "ĠNÃłng": 5506,
      "oáº¡n": 5507,
      "Thá»ĭ": 5508,
      "ĠWifi": 5509,
      "Hotline": 5510,
      "ÃĤY": 5511,
      "ĠvÃ´i": 5512,
      "Ġgolf": 5513,
      "ĠSÃ¢n": 5514,
      "Ġviá»ģn": 5515,
      "ĠVIá»ĨT": 5516,
      "ĠHan": 5517,
      "ĠIII": 5518,
      "CÃ¢y": 5519,
      "ĠtÃ³m": 5520,
      "ĠVn": 5521,
      "ĠKÃŃnh": 5522,
      "ĠViá»ħn": 5523,
      "ĠLH": 5524,
      "ĠZh": 5525,
      "ĠIran": 5526,
      "ĠChia": 5527,
      "ĠDownload": 5528,
      "========": 5529,
      "my": 5530,
      "afe": 5531,
      "Ġbáº¿": 5532,
      "Ġreview": 5533,
      "ĠthiÃªng": 5534,
      "Lá»Ŀi": 5535,
      "ÄĲÃºng": 5536,
      "ĠMC": 5537,
      "ĠchÃ¬a": 5538,
      "eed": 5539,
      "Ġkhiáº¿t": 5540,
      "ĠDáº¡": 5541,
      "ĠHotel": 5542,
      "ÃįNH": 5543,
      "ĠBin": 5544,
      "PN": 5545,
      "ĠTá»©": 5546,
      "ĠResort": 5547,
      "Ġtrá»ħ": 5548,
      "Ġgu": 5549,
      "ĠGS": 5550,
      "ĠÄĳá»¥c": 5551,
      "ĠLÃĢ": 5552,
      "ors": 5553,
      "Ġve": 5554,
      "ĠMá»©c": 5555,
      "aka": 5556,
      "ĠKhá»Łi": 5557,
      "date": 5558,
      "ĠThÃ¬": 5559,
      "ÄĲá»ģ": 5560,
      "Ġdáº·n": 5561,
      "ĠCMND": 5562,
      "Ġdom": 5563,
      "ĠVinhomes": 5564,
      "Diá»ħn": 5565,
      "ĠbÃºn": 5566,
      "Video": 5567,
      "Ġkhoang": 5568,
      "ĠsÃºc": 5569,
      "Ġ{": 5570,
      "osh": 5571,
      "ĠXiao": 5572,
      "ition": 5573,
      "aha": 5574,
      "62": 5575,
      "Ġdáº£i": 5576,
      "ĠHá»ıa": 5577,
      "Ġthá»īnh": 5578,
      "ĠHoÃł": 5579,
      "ĠNgÅ©": 5580,
      "ÄĤN": 5581,
      "Phá»¥": 5582,
      "dro": 5583,
      "ĠmÃ¢m": 5584,
      "ĠquÃ£ng": 5585,
      "Loáº¡i": 5586,
      "ĠAustralia": 5587,
      "Phong": 5588,
      "ĠNS": 5589,
      "ÄĤNG": 5590,
      "ĠKing": 5591,
      "Láº§n": 5592,
      "ae": 5593,
      "ĠbÃłng": 5594,
      "Ġthuá»·": 5595,
      "ĠPhÃ¹": 5596,
      "ĠBÃ¡t": 5597,
      "Ġrá»ķ": 5598,
      "oss": 5599,
      "áº¦U": 5600,
      "GiÃ¡o": 5601,
      "Ġquáº§y": 5602,
      "ĠTIN": 5603,
      "ĠÄĳiÃªu": 5604,
      "ĠCÆ°Æ¡ng": 5605,
      ">>>": 5606,
      "ĠSU": 5607,
      "ĠChiáº¿c": 5608,
      "2009": 5609,
      "Ġláº©u": 5610,
      "ĠChuyá»ĩn": 5611,
      "ĠLá»Ľp": 5612,
      "ĠÑ": 5613,
      "olog": 5614,
      "ï¿": 5615,
      "Ġrang": 5616,
      "Giá»Ŀ": 5617,
      "Ġmuá»Ļi": 5618,
      "HD": 5619,
      "Ġcháº·ng": 5620,
      "ĠSol": 5621,
      "Ġdá»Ĺ": 5622,
      "Ġlog": 5623,
      "PhÃ³": 5624,
      "83": 5625,
      "ney": 5626,
      "ĠNghe": 5627,
      "YT": 5628,
      "Ġrá»ĩt": 5629,
      "Ġ360": 5630,
      "ChÃło": 5631,
      "ĠÃ¡": 5632,
      "ĠGames": 5633,
      "¯a": 5634,
      "ĠHome": 5635,
      "73": 5636,
      "Ġ43": 5637,
      "MÃ¹a": 5638,
      "li": 5639,
      "Ġkáº¹o": 5640,
      "Ġvá»©": 5641,
      "ĠrÃ¢u": 5642,
      "Ġcau": 5643,
      "ĠChuyá»ĥn": 5644,
      "74": 5645,
      "Ná»¯": 5646,
      "ĠDis": 5647,
      "biz": 5648,
      "ï¿½": 5649,
      "ĠNgá»¯": 5650,
      "ĠRonaldo": 5651,
      "otte": 5652,
      "ader": 5653,
      "Ġqui": 5654,
      "national": 5655,
      "ĠSá»¯a": 5656,
      "ĠTiáº¿t": 5657,
      "ÄĤn": 5658,
      "ĠLáº¡i": 5659,
      "82": 5660,
      "ĠKháº¯c": 5661,
      "ĠRiÃªng": 5662,
      "ĠMÃ´": 5663,
      "lish": 5664,
      "Ġsá»Ŀ": 5665,
      "Ġráº½": 5666,
      "ĠBiáº¿t": 5667,
      "celona": 5668,
      "ele": 5669,
      "ĠBá»ĳ": 5670,
      "Ġnhuá»Ļm": 5671,
      "xem": 5672,
      "Ġlá»į": 5673,
      "ĠRáº»": 5674,
      "ĠCap": 5675,
      "Ġvuá»ĳt": 5676,
      "ĠHang": 5677,
      "ĠÄĳáº¡c": 5678,
      "oud": 5679,
      "Ġare": 5680,
      "ĠItal": 5681,
      ".[": 5682,
      "NÄĲ": 5683,
      "ĠhÃŃt": 5684,
      "ĠHoáº¡t": 5685,
      "ĠcÃµi": 5686,
      "Ġ..": 5687,
      "ĠComment": 5688,
      "Ġor": 5689,
      "ĠDÃ²ng": 5690,
      "ĠLÃ£o": 5691,
      "ĠÄĳinh": 5692,
      "Ġvoi": 5693,
      "Ġcháº£o": 5694,
      "Ġthiá»ģn": 5695,
      "ĠlÆ¡": 5696,
      "Ráº¥t": 5697,
      "pa": 5698,
      "word": 5699,
      "lines": 5700,
      "me": 5701,
      "ĠLiÃªu": 5702,
      "Ġlanh": 5703,
      "ĠLang": 5704,
      "earl": 5705,
      "Ġtáº£n": 5706,
      "ĠSim": 5707,
      "ĠAN": 5708,
      "Ġgá»Ļi": 5709,
      "ĠbÃ³c": 5710,
      "''": 5711,
      "Ġlá»¥a": 5712,
      "ĠRom": 5713,
      "ĠVitamin": 5714,
      "ĠBHXH": 5715,
      "IP": 5716,
      "Ġhe": 5717,
      "ĠCÄĲ": 5718,
      "Ġhá»ĳ": 5719,
      "Má»¥c": 5720,
      "ĠhÆ°á»Ľc": 5721,
      "dong": 5722,
      "ĠBS": 5723,
      "oney": 5724,
      "Ġnháº·t": 5725,
      "ĠKhÃŃ": 5726,
      "aki": 5727,
      "ĠYo": 5728,
      "outh": 5729,
      "81": 5730,
      "ham": 5731,
      "entina": 5732,
      "ĠTá»ĳng": 5733,
      "Ġtá»ĵi": 5734,
      "Ġhack": 5735,
      "ĠVá»«a": 5736,
      "ĠSoi": 5737,
      "row": 5738,
      "err": 5739,
      "BÃŃ": 5740,
      "Ġnáº§y": 5741,
      "ĠAb": 5742,
      "ĠPHÃģ": 5743,
      "KS": 5744,
      "uat": 5745,
      "á»ĲC": 5746,
      "ooth": 5747,
      "ĠStar": 5748,
      "--------": 5749,
      "Iá»ĨU": 5750,
      "Ġmobile": 5751,
      "Ġpm": 5752,
      "Ġá»ĳm": 5753,
      "DÃ¹ng": 5754,
      "TB": 5755,
      "Ġxoáº¯n": 5756,
      "ĠÄĲá»ĺ": 5757,
      "ĠtÆ¡": 5758,
      "ĠEr": 5759,
      "ĠChuáº©n": 5760,
      "ThÆ°Æ¡ng": 5761,
      "UB": 5762,
      "ĠBáº¯n": 5763,
      "ĠTranh": 5764,
      "ĠJu": 5765,
      "ĠSuper": 5766,
      "ĠTÃ¡m": 5767,
      "ĠmáºŃp": 5768,
      "ĠTá»ĳ": 5769,
      "ĠGáº§n": 5770,
      "Ġgáº¡t": 5771,
      "ĠPhiÃªn": 5772,
      "Ġacid": 5773,
      "lic": 5774,
      "................": 5775,
      "Hy": 5776,
      "ĠchÃ©m": 5777,
      "ĠBÃģ": 5778,
      "ĠOb": 5779,
      "ki": 5780,
      "Ġá»Ĳ": 5781,
      "Ġchá»įc": 5782,
      "Ġnhuyá»ħn": 5783,
      "tim": 5784,
      "Ġun": 5785,
      "cÃ´ng": 5786,
      "ĠDO": 5787,
      "ĠLá»Ļ": 5788,
      "der": 5789,
      "ford": 5790,
      "ĠTour": 5791,
      "ĠThoáº¡i": 5792,
      "Ġ;": 5793,
      "KÃŃch": 5794,
      "ĠTech": 5795,
      "Ġ52": 5796,
      "ĠInst": 5797,
      "Tu": 5798,
      "ĠxÃ³t": 5799,
      "Ġngáº·t": 5800,
      "Ġxao": 5801,
      "urn": 5802,
      "ĠvÃłnh": 5803,
      "ĠhoÃ£n": 5804,
      "king": 5805,
      "erry": 5806,
      "ĠRá»ĭa": 5807,
      "Ġkaraoke": 5808,
      "over": 5809,
      "ĠGl": 5810,
      "QT": 5811,
      "Bá»Łi": 5812,
      "amil": 5813,
      "ĠBlu": 5814,
      "Ġthis": 5815,
      "ĠÄĲá»Ŀi": 5816,
      "ips": 5817,
      "KT": 5818,
      "ĠNhiÃªn": 5819,
      "ĠFord": 5820,
      "ega": 5821,
      "ĠGarden": 5822,
      "Ex": 5823,
      "ĠtÃº": 5824,
      ",..": 5825,
      "ĠKiá»ĩt": 5826,
      "ĠDH": 5827,
      "gen": 5828,
      "Ġgay": 5829,
      "hoáº·c": 5830,
      "Ġcáº©m": 5831,
      "combank": 5832,
      "vi": 5833,
      "Ġnhá»Ļn": 5834,
      "ĠLuÃ¢n": 5835,
      "ĠSÆ¡": 5836,
      "Ġluá»Ļc": 5837,
      "Ġauthor": 5838,
      "cc": 5839,
      "ĠchÃ¬": 5840,
      "ĠManchester": 5841,
      "Ġclick": 5842,
      "Ġ700": 5843,
      "ĠBV": 5844,
      "book": 5845,
      "Ġkáº¹p": 5846,
      "ĠVui": 5847,
      "ĠSky": 5848,
      "ĠChÃº": 5849,
      "Giao": 5850,
      "Pl": 5851,
      "Ġáº¢": 5852,
      "ush": 5853,
      "Ġwin": 5854,
      "ĠDel": 5855,
      "ters": 5856,
      "á»°C": 5857,
      "Ġgas": 5858,
      "ĠMe": 5859,
      "ĠLi": 5860,
      "ĠTHCS": 5861,
      "III": 5862,
      "Há»į": 5863,
      "Ġmuá»Ĺi": 5864,
      "ĠTrÆ°ng": 5865,
      "ĠGiÃ¡ng": 5866,
      "ĠEmail": 5867,
      "ĠtÃł": 5868,
      "MB": 5869,
      "ĠxÆ°ng": 5870,
      "ove": 5871,
      "ĠRá»ĵng": 5872,
      "ĠAirlines": 5873,
      "ĠmÃ£nh": 5874,
      "ĠNgÃ´n": 5875,
      "95": 5876,
      "ĠTriá»ĥn": 5877,
      "71": 5878,
      "DC": 5879,
      "Ġcáº¥y": 5880,
      "ÄĲáº·t": 5881,
      "ĠIm": 5882,
      "UBND": 5883,
      "BÃłn": 5884,
      "ĠGo": 5885,
      "ĠdÃło": 5886,
      "lá»Ĺi": 5887,
      "ĠNá»ģn": 5888,
      "ĠRa": 5889,
      "uto": 5890,
      "Ġap": 5891,
      "ĠÄĳÃ¹i": 5892,
      "Ġ95": 5893,
      "istan": 5894,
      "Ġkhiáº¿p": 5895,
      "po": 5896,
      "ĠTÃŃch": 5897,
      "Re": 5898,
      "Ġkáº¹t": 5899,
      "fo": 5900,
      "Ġcol": 5901,
      "ĠMet": 5902,
      "ĠTÆ°á»Ľng": 5903,
      "ĠMV": 5904,
      "ĠrÃ©t": 5905,
      "ĠGÃ²": 5906,
      "any": 5907,
      "ago": 5908,
      "xe": 5909,
      "esh": 5910,
      "./.": 5911,
      "Ġtaxi": 5912,
      "iep": 5913,
      "khÃ´": 5914,
      "Cá»Ńa": 5915,
      "ĠbÃ¹n": 5916,
      "Ġgá»ĳm": 5917,
      "ko": 5918,
      "avel": 5919,
      "ĠMc": 5920,
      "Ġdomain": 5921,
      "ĠXS": 5922,
      "á»ĬCH": 5923,
      "ĠvÆ°á»£ng": 5924,
      "Gh": 5925,
      "Ġsize": 5926,
      "...\"": 5927,
      "ĠMessi": 5928,
      "Ġnan": 5929,
      "á»Ľc": 5930,
      "Ġ85": 5931,
      "ĠCHO": 5932,
      "ĠKÃ´ng": 5933,
      "ĠKháº£i": 5934,
      "ĠSport": 5935,
      "AA": 5936,
      "ĠBig": 5937,
      "Ġ}": 5938,
      "try": 5939,
      "ĠhÆ°ng": 5940,
      "ĠTá»ĳi": 5941,
      "Ġ46": 5942,
      "omo": 5943,
      "ĠGreen": 5944,
      "ĠphÃ¬": 5945,
      "ĠtÃºng": 5946,
      "ThÃªm": 5947,
      "Chuyá»ĩn": 5948,
      "ĠÄĲá»ĳng": 5949,
      "ĠxÆ°á»Ľc": 5950,
      "ÃĹ": 5951,
      "á»Į": 5952,
      "Ġ41": 5953,
      "ading": 5954,
      "yn": 5955,
      "Ġ2023": 5956,
      "Ġ2006": 5957,
      "ToÃłn": 5958,
      "ins": 5959,
      "Ġbáº¡t": 5960,
      "ĠiPad": 5961,
      "ĠDan": 5962,
      "eon": 5963,
      "Ġthat": 5964,
      "ĠMP": 5965,
      "ĠMuá»ĳn": 5966,
      "Ġfl": 5967,
      "ĠNHÃĢ": 5968,
      "Ġcollagen": 5969,
      "ĠMob": 5970,
      "ĠÄĳÃ¨": 5971,
      "LO": 5972,
      "hay": 5973,
      "FC": 5974,
      "Ġmon": 5975,
      "DS": 5976,
      "ĠSony": 5977,
      "ouch": 5978,
      "ator": 5979,
      "NÃ³": 5980,
      "Ġchá»ĳn": 5981,
      "Ġbá»ĵ": 5982,
      "Ġkhuáº¥t": 5983,
      "Ġcháº±m": 5984,
      "Ġadmin": 5985,
      "ĠTrÄĥng": 5986,
      "evel": 5987,
      "Ġsáº£nh": 5988,
      "DA": 5989,
      "Nghe": 5990,
      "Ġ44": 5991,
      "Ad": 5992,
      "ĠMart": 5993,
      "Ġváº·n": 5994,
      "ĠKhÃ¡m": 5995,
      "Hz": 5996,
      "Ġhiáº¿p": 5997,
      "Äĳá»įc": 5998,
      "Ġgen": 5999,
      "ĠxÃŃu": 6000,
      "ott": 6001,
      "ami": 6002,
      "TÄĥng": 6003,
      "Ġbl": 6004,
      "ĠThÃ¹y": 6005,
      "ĠXÃ´": 6006,
      "Tá»ķ": 6007,
      "Ġá»§i": 6008,
      "Ġwh": 6009,
      "bal": 6010,
      "Cáº£": 6011,
      "ĠJack": 6012,
      "Ġteam": 6013,
      "ÃĢY": 6014,
      "Ġnhung": 6015,
      "ĠGiÃ¡p": 6016,
      "ĠÄĳuá»ĳi": 6017,
      "Ġngáº¯t": 6018,
      "Ġvá»ī": 6019,
      "Ġxáº¯n": 6020,
      "ĠVy": 6021,
      "ĠDav": 6022,
      "Ġlá»Ł": 6023,
      "ĠcháºŃt": 6024,
      "Ġsá»¥t": 6025,
      "ĠHyundai": 6026,
      "ĠxÃŃ": 6027,
      "Ġráº¡p": 6028,
      "Ġli": 6029,
      "game": 6030,
      "ĠxuÃ´i": 6031,
      "ĠÄĳu": 6032,
      "ĠWar": 6033,
      "ĠAI": 6034,
      "Ġnhá»¥c": 6035,
      "ĠNhÃ£": 6036,
      "ĠDes": 6037,
      "ĠVTV": 6038,
      "apa": 6039,
      "ĠTáº§ng": 6040,
      "ĠSang": 6041,
      "ĠChÄĥm": 6042,
      "ĠSil": 6043,
      "Ġyour": 6044,
      "PP": 6045,
      "ĠkiÃªm": 6046,
      "uki": 6047,
      "ĠPhÃ¹ng": 6048,
      "azon": 6049,
      "ĠÄĲá»ı": 6050,
      "Ġauthority": 6051,
      "ĠMich": 6052,
      "ĠGiai": 6053,
      "xx": 6054,
      "ĠKem": 6055,
      "ĠPower": 6056,
      "ĠNgÃ´i": 6057,
      "Ġchá»Ńi": 6058,
      "ats": 6059,
      "ixel": 6060,
      "ett": 6061,
      "ishi": 6062,
      "ava": 6063,
      "nhÆ°": 6064,
      "ĠsÃ¡p": 6065,
      "ĠNhanh": 6066,
      "ser": 6067,
      "985": 6068,
      "ING": 6069,
      "ĠMag": 6070,
      "ĠÄĳá»ĳng": 6071,
      "Ġná»į": 6072,
      "Ġváº¯t": 6073,
      "á»ĺI": 6074,
      "ĠTuáº§n": 6075,
      "ĠTráº£": 6076,
      "Ġ51": 6077,
      "ĠnÃ´": 6078,
      "Ġlá»Ļt": 6079,
      "ĠAv": 6080,
      "ThiÃªn": 6081,
      "ÃĢNH": 6082,
      "ĠÄĲÃłm": 6083,
      "ĠdÃ¬": 6084,
      "ĠLáº¯p": 6085,
      "ĠNhung": 6086,
      "Ġkáº½m": 6087,
      "Ġsá»¥p": 6088,
      "á»Ĩ": 6089,
      "ĠBarcelona": 6090,
      "ðĿĲ": 6091,
      "Ar": 6092,
      "ĠKy": 6093,
      "Náº±m": 6094,
      "ĠInternational": 6095,
      "etooth": 6096,
      "Ġnhá»įn": 6097,
      "ĠNháºŃp": 6098,
      "ĠÆ°á»Ľp": 6099,
      "ĠLÃªn": 6100,
      "700": 6101,
      "Ġgá»ī": 6102,
      "áº»m": 6103,
      "ja": 6104,
      "ĠPer": 6105,
      "Ġcont": 6106,
      "ĠWal": 6107,
      "fl": 6108,
      "Ġthon": 6109,
      "bur": 6110,
      "TVT": 6111,
      "Háº¯n": 6112,
      "ondon": 6113,
      "Ġlá»ĳp": 6114,
      "Ġkhao": 6115,
      "ĠâĨĴ": 6116,
      "ĠSmart": 6117,
      "Ġ110": 6118,
      "Ġnguá»Ļi": 6119,
      "Ġ69": 6120,
      "á»¨ng": 6121,
      "ster": 6122,
      "sa": 6123,
      "ĠxÃ´": 6124,
      "Facebook": 6125,
      "Sinh": 6126,
      "Ġform": 6127,
      "Ġxáº£o": 6128,
      "Ġvá»©t": 6129,
      "Ġháº¡ch": 6130,
      "tv": 6131,
      "ĠCB": 6132,
      "Ġnghiá»ĩt": 6133,
      "CÃ¡": 6134,
      "Vá»«a": 6135,
      "ĠSáº½": 6136,
      "ĠâĢĺ": 6137,
      "2008": 6138,
      "ĠrÃ¡ch": 6139,
      "Tráº§n": 6140,
      "ĠPost": 6141,
      "Ġpost": 6142,
      "ĠWe": 6143,
      "ĠchÃ©o": 6144,
      "Ġï": 6145,
      "ĠKhÃª": 6146,
      "365": 6147,
      "ĠbÄĥm": 6148,
      "ĠUV": 6149,
      "Ġsal": 6150,
      "ĠVÃ²ng": 6151,
      "Ġngáº§n": 6152,
      "ĠNay": 6153,
      "get": 6154,
      "ĠlÃ¡nh": 6155,
      "Ġdá»Ŀi": 6156,
      "ashing": 6157,
      "Ġsáº§u": 6158,
      "Ġgom": 6159,
      "cr": 6160,
      "Ġ~": 6161,
      "Ġbá»Ļc": 6162,
      "ĠLG": 6163,
      "ĠloÃ£ng": 6164,
      "61": 6165,
      "ĠKHÃĶNG": 6166,
      "Lá»ĭch": 6167,
      "tech": 6168,
      "auty": 6169,
      "Tiá»ģn": 6170,
      "ĠLáº¥y": 6171,
      "ever": 6172,
      "Æ°Æ¡m": 6173,
      "ga": 6174,
      "ĠBid": 6175,
      "Ġvá»£t": 6176,
      "Ġ59": 6177,
      "ĠchÃł": 6178,
      "omb": 6179,
      "Ġrong": 6180,
      "Ġpháº§m": 6181,
      "ĠnhÃ¡y": 6182,
      "Ġnuá»ĳt": 6183,
      "ĠKr": 6184,
      "ĠAngel": 6185,
      "ĠVÄĲ": 6186,
      "MÃ´": 6187,
      "ĠArg": 6188,
      "itr": 6189,
      "pro": 6190,
      "Ġcháº£i": 6191,
      "MÃłu": 6192,
      "san": 6193,
      "bl": 6194,
      "ĠSw": 6195,
      "rol": 6196,
      "air": 6197,
      "Ġ900": 6198,
      ".-": 6199,
      "Ġchá»Ľp": 6200,
      "Ġ68": 6201,
      "ĠEng": 6202,
      "uck": 6203,
      "ĠbÃºa": 6204,
      "Ġliá»ħu": 6205,
      "ĠphÃ´": 6206,
      "ĠCT": 6207,
      "ĠMá»Ļ": 6208,
      "ĠWest": 6209,
      "ĠbuÃ½t": 6210,
      "link": 6211,
      "GP": 6212,
      "ĠEver": 6213,
      "ĠHÃĢNG": 6214,
      "\":": 6215,
      "day": 6216,
      "ĠdÃ©p": 6217,
      "ĠMáº¡ch": 6218,
      "ĠKong": 6219,
      "ĠOm": 6220,
      "ult": 6221,
      "ĠÄĲen": 6222,
      "ĠJam": 6223,
      "Ġbá»«ng": 6224,
      "ĠnhÆ°á»Ŀng": 6225,
      "ThÃ¡i": 6226,
      "ĠAC": 6227,
      "900": 6228,
      "Ġcheck": 6229,
      "Ġ188": 6230,
      "ĠÄĳao": 6231,
      "ĠUyÃªn": 6232,
      "Tháº£o": 6233,
      "ĠÃĤn": 6234,
      "edes": 6235,
      "9853": 6236,
      "ĠTuyáº¿n": 6237,
      "%)": 6238,
      "ĠTáº¡": 6239,
      "Ġ47": 6240,
      "Ġrá»ĥ": 6241,
      "Ġká»µ": 6242,
      "ĠÃ´tÃ´": 6243,
      "ĠÄĳÃ£ng": 6244,
      "áºłN": 6245,
      "ĠtÄĥm": 6246,
      "oid": 6247,
      "agram": 6248,
      "thu": 6249,
      "TE": 6250,
      "Ġcalo": 6251,
      "Fi": 6252,
      "nham": 6253,
      "ĠXÃ¡c": 6254,
      "theo": 6255,
      "Ġmá»ĵi": 6256,
      "Cung": 6257,
      "Ġmore": 6258,
      "ĠhÃ©t": 6259,
      "ĠNgÃłnh": 6260,
      "tai": 6261,
      "ble": 6262,
      "Ġ2005": 6263,
      "Chiáº¿c": 6264,
      "ashington": 6265,
      "ĠBáº¯t": 6266,
      "ĠTuyá»ĥn": 6267,
      "Ð°": 6268,
      "Ġgel": 6269,
      "ĠMilan": 6270,
      "br": 6271,
      "Kiá»ĥm": 6272,
      "ĠláºŃn": 6273,
      "Ġngoáº¡n": 6274,
      "ated": 6275,
      "lÃł": 6276,
      "ĠbÆ°á»Ľ": 6277,
      "Ġoan": 6278,
      "ĠÄĲá»Ļc": 6279,
      "Ġalbum": 6280,
      "ction": 6281,
      "Ġlá»Ļi": 6282,
      "ĠSá»Ńa": 6283,
      "ĠHá»ĺ": 6284,
      "ĠhÃ´ng": 6285,
      "ĠNhiá»ĩt": 6286,
      "].": 6287,
      "ĠBÃ¡i": 6288,
      "ĠTwitter": 6289,
      "ĠBer": 6290,
      "itt": 6291,
      "ĠHiáº¿n": 6292,
      "DI": 6293,
      "ĠAg": 6294,
      "ĠJi": 6295,
      "Ġop": 6296,
      "zh": 6297,
      "ĠbÃ¡u": 6298,
      "ĠgiÃ²": 6299,
      "ĠRoy": 6300,
      "Ġquáº¥n": 6301,
      "ĠgiÃłn": 6302,
      "ĠMong": 6303,
      "ĠÄĲáº£m": 6304,
      "otor": 6305,
      "ĠBÃ£i": 6306,
      "ĠKhoáº£ng": 6307,
      "ĠLÃ´": 6308,
      "ĠQuay": 6309,
      "anpage": 6310,
      "ora": 6311,
      "ĠTháº¥y": 6312,
      "khi": 6313,
      "nhá»¯ng": 6314,
      "ĠTruy": 6315,
      "Ġtruc": 6316,
      "ĠcÃ³c": 6317,
      "Ġ56": 6318,
      "du": 6319,
      "ĠHa": 6320,
      "ony": 6321,
      "form": 6322,
      "ĠDS": 6323,
      "Ġphe": 6324,
      "áº¢O": 6325,
      "Ġ180": 6326,
      "ĠBiá»ĩt": 6327,
      "ward": 6328,
      "HÃłnh": 6329,
      "ELTS": 6330,
      "Ãµm": 6331,
      "ĠLondon": 6332,
      "ĠDV": 6333,
      "áº¬P": 6334,
      "%/": 6335,
      "ĠBet": 6336,
      "ĠChÃ¹a": 6337,
      "ates": 6338,
      "ĠbÃ©n": 6339,
      "Ġcomp": 6340,
      "ĠDao": 6341,
      "ĠGolden": 6342,
      "UR": 6343,
      "Ġtphcm": 6344,
      "ĠThÆ°á»Łng": 6345,
      "ĠTown": 6346,
      "Ġghen": 6347,
      "ĠBro": 6348,
      "ru": 6349,
      "thanh": 6350,
      "ĠDonald": 6351,
      "ĠAp": 6352,
      "Ġcard": 6353,
      "ĠnÃªm": 6354,
      "Ġeuro": 6355,
      "ĠDuyÃªn": 6356,
      "Vá»¥": 6357,
      "ĠCEO": 6358,
      "Ġphá»Ł": 6359,
      "ny": 6360,
      "ĠRAM": 6361,
      "Ġiphone": 6362,
      "Å©a": 6363,
      "wei": 6364,
      "Ġniá»ĩu": 6365,
      "itan": 6366,
      "ĠSaigon": 6367,
      "ĠHN": 6368,
      "ÄĲá»Ļ": 6369,
      "ĠoÃ¡n": 6370,
      "HT": 6371,
      "ĦN": 6372,
      "rev": 6373,
      "YÃªu": 6374,
      "Ġlaser": 6375,
      "Ġcá»«": 6376,
      "ateg": 6377,
      "ĠAlex": 6378,
      "tainer": 6379,
      "ĠVu": 6380,
      "LÃ¢m": 6381,
      "ĠJe": 6382,
      "UYÃĬN": 6383,
      "XÃ¢y": 6384,
      "á»¨C": 6385,
      "ĠOlympic": 6386,
      "ĠCá»±c": 6387,
      "ĠUp": 6388,
      "ĠÄĳáºŃy": 6389,
      "ĠTho": 6390,
      "esterol": 6391,
      "ĠRep": 6392,
      "Ġnot": 6393,
      "Quan": 6394,
      "Ġbáº©m": 6395,
      "bon": 6396,
      "ĠATM": 6397,
      "ĠlÆ°á»Ŀi": 6398,
      "ĠnhÃŃ": 6399,
      "Ġlike": 6400,
      "Bao": 6401,
      "ãĥ": 6402,
      "Tá»īnh": 6403,
      "Ġxá»ĳp": 6404,
      "ĠKhÃ³a": 6405,
      "Ġdang": 6406,
      "ious": 6407,
      "ĠViÃªm": 6408,
      ")-": 6409,
      "ĠKitÃ´": 6410,
      "ĠMu": 6411,
      "rael": 6412,
      "ĠUl": 6413,
      "Ġ54": 6414,
      "á»ĲNG": 6415,
      "Ġvá»±ng": 6416,
      "ĠloÃ©t": 6417,
      "Ð¾": 6418,
      "ĠrÃ²": 6419,
      "ĠcÃºc": 6420,
      "eme": 6421,
      "ĠvÃ£": 6422,
      "obot": 6423,
      "vip": 6424,
      "ĠMÃłn": 6425,
      "Ġgáº§m": 6426,
      "Gáº§n": 6427,
      "Ġ79": 6428,
      "aco": 6429,
      "Gá»Ńi": 6430,
      "ĠBTC": 6431,
      "ĠBarca": 6432,
      "By": 6433,
      "Doanh": 6434,
      "ĠHam": 6435,
      "Chiáº¿n": 6436,
      "ĠMÃģY": 6437,
      "edu": 6438,
      "ĠLá»": 6439,
      "ventus": 6440,
      "ea": 6441,
      "ĠSA": 6442,
      "bin": 6443,
      "Ã©c": 6444,
      "ChÆ°a": 6445,
      "ĠWashington": 6446,
      "Ġláº·n": 6447,
      "ĠHá»ķ": 6448,
      "Tá»Ń": 6449,
      "Ġdá»¡": 6450,
      "Ġbá»±c": 6451,
      "ĠDec": 6452,
      "chain": 6453,
      "Tiáº¿ng": 6454,
      "ĠNat": 6455,
      "ĠMaster": 6456,
      "ĠMel": 6457,
      "ĠtÆ°á»Ľc": 6458,
      "App": 6459,
      "Ġná»ĩm": 6460,
      "ĠTri": 6461,
      "CoV": 6462,
      "Ġ@": 6463,
      "Ġlay": 6464,
      "ball": 6465,
      "col": 6466,
      "ĠXá»ķ": 6467,
      "lam": 6468,
      "ĠGar": 6469,
      "ĠnÃłnh": 6470,
      "ÃĬU": 6471,
      "ĠHáº¡o": 6472,
      "Ġdong": 6473,
      "ĠThao": 6474,
      "ontent": 6475,
      "hai": 6476,
      "ĠÄĳoan": 6477,
      "Ġ63": 6478,
      "ĠchÃ´n": 6479,
      "ĠMerc": 6480,
      "ĠLo": 6481,
      "?\".": 6482,
      "PC": 6483,
      "ĠYoutube": 6484,
      "Ġ89": 6485,
      "ĠnÃłn": 6486,
      "ĠCáº£ng": 6487,
      "ject": 6488,
      "Ġliáº¿c": 6489,
      "Æ¯á»ļC": 6490,
      "ĠMáºŃt": 6491,
      "áº½n": 6492,
      "house": 6493,
      "ĠsÆ°á»Łi": 6494,
      "ĠmiÃªu": 6495,
      "ĠNÃło": 6496,
      "Ġngá»¥c": 6497,
      "ĠLog": 6498,
      "PhÃ¡p": 6499,
      "ĠkhiÃªm": 6500,
      "LL": 6501,
      "......": 6502,
      "OV": 6503,
      "Tube": 6504,
      "Ġ72": 6505,
      "Ġwas": 6506,
      "ourinho": 6507,
      "ĠBai": 6508,
      "ella": 6509,
      "Ġngá»¡": 6510,
      "ÄĲá»©c": 6511,
      "Ġkiá»ģu": 6512,
      "ĠãĢĤ": 6513,
      "Ã³p": 6514,
      "ĠCÃºp": 6515,
      "Ġ66": 6516,
      "uoi": 6517,
      "lor": 6518,
      "ĠBiá»ĥu": 6519,
      "ĠPin": 6520,
      "ĴNG": 6521,
      "ĠkiÃªu": 6522,
      "ique": 6523,
      "Ġstress": 6524,
      "iger": 6525,
      "gg": 6526,
      "ĠsÃłnh": 6527,
      "ĠchÃ¹m": 6528,
      "ĠDáº§n": 6529,
      "ĠXu": 6530,
      "Ġngáº¥t": 6531,
      "for": 6532,
      "ÄĲoÃłn": 6533,
      "ages": 6534,
      "Tráº»": 6535,
      "ĠrÃ²ng": 6536,
      "BO": 6537,
      "EW": 6538,
      "ÄĲÆ¡n": 6539,
      "Ġ350": 6540,
      "ĠFC": 6541,
      "Ġháº¯c": 6542,
      "Ġngá»ĳc": 6543,
      "ĠghÃª": 6544,
      "ler": 6545,
      "CáºŃu": 6546,
      "Ġtime": 6547,
      "Lá»ħ": 6548,
      "áºº": 6549,
      "the": 6550,
      "ĠCÃ´n": 6551,
      "ĠmÃło": 6552,
      "ĠIELTS": 6553,
      "Ġsáº¿p": 6554,
      "ĠxÃłi": 6555,
      "ĠZing": 6556,
      "Ġbaccarat": 6557,
      "ĠUnivers": 6558,
      "ĠLiá»ħu": 6559,
      "ĠKá»ĥ": 6560,
      "Ġmenu": 6561,
      "Ġgáº§y": 6562,
      "Ġuáº¥t": 6563,
      "ĠID": 6564,
      "Ġkhinh": 6565,
      "ĠHol": 6566,
      "ĠKon": 6567,
      "ĠLáº¡p": 6568,
      "Xuáº¥t": 6569,
      "ĠgÃ¢n": 6570,
      "ĠCháº¥p": 6571,
      "ĠTokyo": 6572,
      "ĠXiaomi": 6573,
      "ĠSG": 6574,
      "á»¤C": 6575,
      "ĠÄĲÃ¡ng": 6576,
      "Vietnam": 6577,
      "áº¿ng": 6578,
      "aya": 6579,
      "hy": 6580,
      "rm": 6581,
      "Ġcor": 6582,
      "BÃ¡nh": 6583,
      "ĠGTVT": 6584,
      "ĠÄĲÃ¨n": 6585,
      "ĠSáº¢N": 6586,
      "ĠBB": 6587,
      "ĠBM": 6588,
      "Iá»ĢN": 6589,
      "Ġmáº¯ng": 6590,
      "Ġcá»ĳi": 6591,
      ".)": 6592,
      "atar": 6593,
      "ĠVÆ°á»Ŀn": 6594,
      "ning": 6595,
      "ãĤ": 6596,
      "ĠÆ°": 6597,
      "ĠâĤ«": 6598,
      "ĠZalo": 6599,
      "Ġfrom": 6600,
      "ĠCA": 6601,
      "emon": 6602,
      "iforn": 6603,
      "Ãģo": 6604,
      "Ġgo": 6605,
      "Ġgiáº¿ng": 6606,
      "ĠTrÃłng": 6607,
      "á»īu": 6608,
      "Æ¡ng": 6609,
      "ĠBá»Ļt": 6610,
      "enz": 6611,
      "Cáº£nh": 6612,
      "ĠLU": 6613,
      "Ñĥ": 6614,
      "ĠSá»¹": 6615,
      "Ġranh": 6616,
      "ĠrÃ¡t": 6617,
      "ÄĳÆ°á»£c": 6618,
      "ifornia": 6619,
      "Kem": 6620,
      "ĠTÆ°á»Łng": 6621,
      "ĠNáº±m": 6622,
      "ĠMB": 6623,
      "ĠMáºŃu": 6624,
      "Net": 6625,
      "han": 6626,
      "ĠNote": 6627,
      "Kim": 6628,
      "ĠsÃ¹i": 6629,
      "ĠVic": 6630,
      "ĠArt": 6631,
      "quan": 6632,
      "cÃ¡ch": 6633,
      "Ġblock": 6634,
      "ĠMus": 6635,
      "ĠMat": 6636,
      "ĠNgÆ°á»£c": 6637,
      "Ġruá»ĵi": 6638,
      "ĠvÃłn": 6639,
      "League": 6640,
      "ĠChá»ĳng": 6641,
      "ĠGiáº£": 6642,
      "Ġkhuáº¥y": 6643,
      "Sá»Ńa": 6644,
      "ÄĲá»ĵ": 6645,
      "Â²": 6646,
      "ľI": 6647,
      "MA": 6648,
      "ĠÄĲÃªm": 6649,
      "NgÆ°Æ¡i": 6650,
      "ĠArgentina": 6651,
      "ĠKhá»ĳi": 6652,
      "ĠAmazon": 6653,
      "si": 6654,
      "ĠMT": 6655,
      "ĠChar": 6656,
      "Tá»±": 6657,
      "ple": 6658,
      "XVN": 6659,
      "ĠMÃ¹i": 6660,
      "Ġtuá»³": 6661,
      "ĠkhiÃªu": 6662,
      "Sá»¯a": 6663,
      "ĠlÃ¡ng": 6664,
      "irus": 6665,
      "ield": 6666,
      "Sá»©c": 6667,
      "ĠBá»ī": 6668,
      "ĠQL": 6669,
      "Ġbá»ĩ": 6670,
      "ĠTá»ĳc": 6671,
      "Tá»ĳi": 6672,
      "ĠExcel": 6673,
      "ĠHÃ¢n": 6674,
      "ĠBáº¿p": 6675,
      "Ġgá»¥c": 6676,
      "ĠThuáº¿": 6677,
      "ottenham": 6678,
      "ĠShow": 6679,
      "aza": 6680,
      "ĠCenter": 6681,
      "ange": 6682,
      "ĠLáº¡ng": 6683,
      "Ind": 6684,
      "Tinh": 6685,
      "Ð½": 6686,
      "Ġcarb": 6687,
      "ĠCanh": 6688,
      "ĠThiá»ģn": 6689,
      "ese": 6690,
      "Ġxoang": 6691,
      "ĠGÃł": 6692,
      "ĠCÆ°": 6693,
      "ĠDÃ¢y": 6694,
      "ĠCR": 6695,
      "ĠSn": 6696,
      "ĠYam": 6697,
      "utin": 6698,
      "Ġ%": 6699,
      "dan": 6700,
      "Nhá»Ŀ": 6701,
      "Bá»ĭ": 6702,
      "Ġ_": 6703,
      "ĠGB": 6704,
      "Ãī": 6705,
      "ĠPo": 6706,
      "ÄĤM": 6707,
      "ĠÂ«": 6708,
      "ĠBus": 6709,
      "ology": 6710,
      "Ġtháº£n": 6711,
      "ĠMá»Ŀi": 6712,
      "TÆ°Æ¡ng": 6713,
      "ĠrÆ°á»Ľc": 6714,
      "Ġchol": 6715,
      "PG": 6716,
      "ÄĳÃ£": 6717,
      "ĠcÃºm": 6718,
      "ĠngáºŃm": 6719,
      "ĠSub": 6720,
      "Ġlá»Ļng": 6721,
      "Ġnet": 6722,
      "ĠPhá»ķ": 6723,
      "150": 6724,
      "Ġdr": 6725,
      "Ġhoáº¡": 6726,
      "Ġáº¨": 6727,
      "Ġrá»§": 6728,
      "Ġsi": 6729,
      "ĠReview": 6730,
      "âĺ": 6731,
      "ĠGDP": 6732,
      "ĠchÆ°": 6733,
      "exico": 6734,
      "box": 6735,
      "ĠCas": 6736,
      "ĠSV": 6737,
      "code": 6738,
      "Ġmá»§": 6739,
      "Ġná»©c": 6740,
      "anmar": 6741,
      "ĠNghiá»ģn": 6742,
      "INE": 6743,
      "Ġmg": 6744,
      "NháºŃt": 6745,
      "ĠLáº¯k": 6746,
      "Ġtá»ĭnh": 6747,
      "rop": 6748,
      "ĠNi": 6749,
      "Ġhoi": 6750,
      "Ġ2003": 6751,
      "Ġbáº¡": 6752,
      "Ġláº«y": 6753,
      "atin": 6754,
      "ĠMÃ´ng": 6755,
      "Nghá»ĩ": 6756,
      "Ġrá»Ļ": 6757,
      "chá»ī": 6758,
      "ĠAT": 6759,
      "Giáº£m": 6760,
      "ĠHá»Ĩ": 6761,
      "Ġkhay": 6762,
      "ĠTom": 6763,
      "ĠSm": 6764,
      "DN": 6765,
      "ĠGá»Ńi": 6766,
      "ĠIsrael": 6767,
      "Æ°á»Ŀm": 6768,
      "Ġback": 6769,
      "Ġsil": 6770,
      "ĠHua": 6771,
      "NhÃ³m": 6772,
      "Ġtru": 6773,
      "ĠChoi": 6774,
      "pha": 6775,
      "Ġkhan": 6776,
      "Má»Ł": 6777,
      "ĠST": 6778,
      "ĠbÆ°á»Łi": 6779,
      "TÃ¹y": 6780,
      "ani": 6781,
      "æľ": 6782,
      "ille": 6783,
      "á»¥i": 6784,
      "ĠÄĲang": 6785,
      "ĠCÃģC": 6786,
      "Ġmodel": 6787,
      "EX": 6788,
      "Ġdes": 6789,
      "ĠKi": 6790,
      "Ġ->": 6791,
      "ĠÄĲá»ĵn": 6792,
      "ĠhÄĥng": 6793,
      "iness": 6794,
      "Ġthá»§ng": 6795,
      "vietnam": 6796,
      "enh": 6797,
      "ĠHá»Ļ": 6798,
      "Ġgieo": 6799,
      "ChÃº": 6800,
      "ĠkhÃ¡nh": 6801,
      "ĠÃģp": 6802,
      "ĠNhuáºŃn": 6803,
      "Ġchá»Ľ": 6804,
      "ĠTC": 6805,
      "ĠThiá»ĩu": 6806,
      "aby": 6807,
      "Ġnhá»ıng": 6808,
      "Giáº¥y": 6809,
      "bit": 6810,
      "Ġtp": 6811,
      "ado": 6812,
      "ux": 6813,
      "ÃĴNG": 6814,
      "ĠCont": 6815,
      "ury": 6816,
      "ĠthÃŃnh": 6817,
      "à¹": 6818,
      "ĠdÆ°ng": 6819,
      "ĠKhÆ°Æ¡ng": 6820,
      "ĠYouTube": 6821,
      "ĠSouth": 6822,
      "ii": 6823,
      "giÃ¡": 6824,
      "Ġhuyá»ĩt": 6825,
      "Ġnlá»Ĺi": 6826,
      "ĠLIÃĬN": 6827,
      "ĠFI": 6828,
      "ĠLÃ¡": 6829,
      "khoáº£ng": 6830,
      "str": 6831,
      "ĠKhÃ¡c": 6832,
      "uel": 6833,
      "Ġcholesterol": 6834,
      "ĠDÄ©": 6835,
      "ĠFran": 6836,
      "ĠStudio": 6837,
      "Äĳá»ĥ": 6838,
      "ĠGT": 6839,
      "Ġngáº¡ch": 6840,
      "Ġcháº§n": 6841,
      "ĠVá»Ģ": 6842,
      "Ká»¹": 6843,
      "Ġcáº±m": 6844,
      "men": 6845,
      "DL": 6846,
      "Ġ98": 6847,
      "Pháº£i": 6848,
      "ĠVá»£": 6849,
      "Ġ58": 6850,
      "erg": 6851,
      "Ġcontainer": 6852,
      "å¹": 6853,
      "ĠbÆ°u": 6854,
      "ĠHouse": 6855,
      "Ġar": 6856,
      "ĠhiÃªn": 6857,
      "Ġgym": 6858,
      "ĠCV": 6859,
      "ĠVáº¥p": 6860,
      "Ġnhá»įc": 6861,
      "Ð¸": 6862,
      "pg": 6863,
      "ĠPhÃłm": 6864,
      "Háº£i": 6865,
      "ĠgáºŃy": 6866,
      "ĠNÃ¢ng": 6867,
      "ĠbÃ¬a": 6868,
      "Ġvá»īa": 6869,
      "ĠHáº¡t": 6870,
      "iki": 6871,
      "ĠMas": 6872,
      "DT": 6873,
      "ĠCalifornia": 6874,
      "Ġtháº¡o": 6875,
      "Hu": 6876,
      "ĠTáº·ng": 6877,
      "Ġdoi": 6878,
      "Ġgáº¥u": 6879,
      "Ġ1900": 6880,
      "Ġkhuya": 6881,
      "ĠNá»ĺI": 6882,
      "Pro": 6883,
      "ys": 6884,
      "250": 6885,
      "ĠLuáºŃn": 6886,
      "ĠBinh": 6887,
      "ĠHel": 6888,
      "Ġ53": 6889,
      "ĠhÃ£m": 6890,
      "ons": 6891,
      "ĠIV": 6892,
      "ĠxÃ©": 6893,
      "Ġphot": 6894,
      "ĠVP": 6895,
      "vá»Ľi": 6896,
      "ĠHIV": 6897,
      "ĠTÆ¯": 6898,
      "ific": 6899,
      "HS": 6900,
      "Ġchá»ĳc": 6901,
      "ĠKiá»ĥu": 6902,
      "ĠISO": 6903,
      "ĠNgÆ°Æ¡i": 6904,
      "ĠBank": 6905,
      "ael": 6906,
      "ĠRO": 6907,
      "estay": 6908,
      "Ġquá»µ": 6909,
      "Báº¯t": 6910,
      "ĠMiss": 6911,
      "ARS": 6912,
      "ĠgÃ²": 6913,
      "ĠIntel": 6914,
      "ther": 6915,
      "berg": 6916,
      "Minh": 6917,
      "ĠNGHIá»Ĩ": 6918,
      "á»ĲI": 6919,
      "NgÃ¢n": 6920,
      "ĠTá»ĭnh": 6921,
      "hoa": 6922,
      "Ġcac": 6923,
      "ÄĲÃ´i": 6924,
      "ĠQuáº§n": 6925,
      "Ġmicro": 6926,
      "ima": 6927,
      "Ġque": 6928,
      "Ġcá»Ļ": 6929,
      "ĠKar": 6930,
      "Ġ>>": 6931,
      "ida": 6932,
      "ĠliÃªng": 6933,
      "ĠMos": 6934,
      "ĠPhÃŃa": 6935,
      "ĠQuá»·": 6936,
      "Ġgirl": 6937,
      "Ġni": 6938,
      "Ðµ": 6939,
      "ĠchÃ¨n": 6940,
      "TTQ": 6941,
      "Ġtá»¥i": 6942,
      "Ġchat": 6943,
      "Ġvá»ĭnh": 6944,
      "ĠphÃ¡c": 6945,
      "ĠSec": 6946,
      "Ġtáº¡ng": 6947,
      "ĠlÃ©n": 6948,
      "Ġngháº½n": 6949,
      "ĠFB": 6950,
      "Ġxsm": 6951,
      "ĠDiá»ħm": 6952,
      "ĠHiá»ĥn": 6953,
      "ĠNÃºi": 6954,
      "áº¨M": 6955,
      "GI": 6956,
      "ĠIr": 6957,
      "ĠphiÃªu": 6958,
      "Ġxua": 6959,
      "ĠMit": 6960,
      "Ca": 6961,
      "Ġtro": 6962,
      "Ġdáº¡n": 6963,
      "ĠGá»Ĺ": 6964,
      "ĠXá»Ń": 6965,
      "ĠgÄĥng": 6966,
      "ĠTÃ½": 6967,
      "Ġlá»ĵn": 6968,
      "illa": 6969,
      "ĠDong": 6970,
      "ĠCÃĵ": 6971,
      "ĠLau": 6972,
      "ĠWi": 6973,
      "Ġ2004": 6974,
      "Press": 6975,
      "ĠSá»Ńu": 6976,
      "ĠTá»§": 6977,
      "KhÃ¡m": 6978,
      "tect": 6979,
      "CV": 6980,
      "Cáº§u": 6981,
      "ware": 6982,
      "ĠXá»īu": 6983,
      "sau": 6984,
      "Ġdec": 6985,
      "ĠnÃ¡o": 6986,
      "ĠTuyá»ĩt": 6987,
      "ĠSapa": 6988,
      "ĠTimes": 6989,
      "ÃĶI": 6990,
      "Ġniá»ģng": 6991,
      "CK": 6992,
      "ĠMen": 6993,
      "Ġvá»Ľt": 6994,
      "OT": 6995,
      "MI": 6996,
      "UN": 6997,
      "wood": 6998,
      "Ġkhá»ĳc": 6999,
      "QuÃ¡": 7000,
      "ĠphÃ´ng": 7001,
      "Un": 7002,
      "ĠÄĳÃ¡n": 7003,
      "ĠSÃ¢m": 7004,
      "áº¤P": 7005,
      "ĠTháº»": 7006,
      "uz": 7007,
      "Chuyá»ĥn": 7008,
      "ĠMáº¡i": 7009,
      "Ġvá»įt": 7010,
      "ĠtoÃł": 7011,
      "ĠNHáº¤T": 7012,
      "Tuá»ķi": 7013,
      "ĠCle": 7014,
      "Ġshare": 7015,
      "Ġbáº«y": 7016,
      "Ġrobot": 7017,
      "ĠgÃ³t": 7018,
      "ĠJuventus": 7019,
      "Háº§u": 7020,
      "ÃĤM": 7021,
      "Ġgiáº·c": 7022,
      "ĠTQ": 7023,
      "Ġresort": 7024,
      "ĠTum": 7025,
      "Ġquá»³": 7026,
      "ÃĻNG": 7027,
      "ĠNhá»ĭ": 7028,
      "Táº¡o": 7029,
      "Ġall": 7030,
      "Ġcá»Ľ": 7031,
      "ĠMourinho": 7032,
      "cá»§a": 7033,
      "ĠSáº¯c": 7034,
      "ĠUá»ĳng": 7035,
      "2007": 7036,
      "ĠTra": 7037,
      "Ġfree": 7038,
      "ĠChÃŃn": 7039,
      "ĠInstagram": 7040,
      "cam": 7041,
      "ĠDavid": 7042,
      "ĠCÃģ": 7043,
      "lÆ°á»£ng": 7044,
      "ĠMed": 7045,
      "áº¸": 7046,
      "ĠLaptop": 7047,
      "ĠKCN": 7048,
      "ĠLá»±a": 7049,
      "vo": 7050,
      "Ġnhá»ķ": 7051,
      "ĠrÃ¡n": 7052,
      "Review": 7053,
      "Tuyá»ĥn": 7054,
      "ĠchoÃ¡ng": 7055,
      "ori": 7056,
      "ĠhÃ©": 7057,
      "ĠÄĳÃª": 7058,
      "ĠCÃºc": 7059,
      "Ġ57": 7060,
      "ĠJul": 7061,
      "Quáº£n": 7062,
      "Ġmáº©n": 7063,
      "ĠsáºŃp": 7064,
      "Ġgr": 7065,
      "MÃłn": 7066,
      "Ġquáº¥y": 7067,
      "áº¾N": 7068,
      "ĠBiden": 7069,
      "ĠTottenham": 7070,
      "ĠSl": 7071,
      "Má»©c": 7072,
      "Tá»§": 7073,
      "ĠdÃª": 7074,
      "DÃ²ng": 7075,
      "ef": 7076,
      "ST": 7077,
      "Ġvo": 7078,
      "ĠBá»ķ": 7079,
      "ĠObama": 7080,
      "ĠthÃªu": 7081,
      "Ġsá»«ng": 7082,
      "Ġnhiá»ħu": 7083,
      "ĠGeo": 7084,
      "mua": 7085,
      "Ġcáº©u": 7086,
      "âĢ¦)": 7087,
      "Ġháº»m": 7088,
      "ĠNetwork": 7089,
      "vision": 7090,
      "ĠHill": 7091,
      "ĠtoÃ¡t": 7092,
      "MÃ³n": 7093,
      "huyá»ĩn": 7094,
      "ĠnÃ¡ch": 7095,
      "Cháº¿": 7096,
      "Ġchá»įi": 7097,
      "ĠMÃª": 7098,
      "ĠVÃ¹ng": 7099,
      "xÃ£": 7100,
      "Ġout": 7101,
      "ĠMr": 7102,
      "ĠLÃ¢u": 7103,
      "PA": 7104,
      "Ġab": 7105,
      "otel": 7106,
      "ĠmÃ¡c": 7107,
      "ĠgiÃ£": 7108,
      "osa": 7109,
      "Ġcolor": 7110,
      "ĠchÃ³i": 7111,
      "oster": 7112,
      "Ġhorm": 7113,
      "ĠÄĳÃ¡i": 7114,
      "ĠNghiÃªm": 7115,
      "giá»Ŀ": 7116,
      "ÆłN": 7117,
      "tri": 7118,
      "stem": 7119,
      "Ġnáº¿m": 7120,
      "Ġgiá»ı": 7121,
      "Iáº¾N": 7122,
      "ÄĲÃ¨n": 7123,
      "Ġphai": 7124,
      "alog": 7125,
      "BÃ¢y": 7126,
      "anta": 7127,
      "ĠVIP": 7128,
      "ĠMyanmar": 7129,
      "trang": 7130,
      "ealth": 7131,
      "Ġ67": 7132,
      "Kiáº¿n": 7133,
      "ican": 7134,
      "NÆ¡i": 7135,
      "ĠthÃª": 7136,
      "ĠpháºŃt": 7137,
      "ĠMáº¯t": 7138,
      "Ġhá»ĩt": 7139,
      "Ġmien": 7140,
      "ĠMÅ©i": 7141,
      "á»£n": 7142,
      "ĠnhÃłn": 7143,
      "ĠlÆ°á»£n": 7144,
      "åĲ": 7145,
      "Ġxiáº¿t": 7146,
      "anda": 7147,
      "LÃª": 7148,
      "áº©ng": 7149,
      "Ġnhiáº¿p": 7150,
      "ĠQuáº¿": 7151,
      "AV": 7152,
      "Ġev": 7153,
      "ĠLuc": 7154,
      "alk": 7155,
      "ĠTráºŃn": 7156,
      "Ġgá»Łi": 7157,
      "Ġcar": 7158,
      "Ġsáº§m": 7159,
      "Ġtab": 7160,
      "NV": 7161,
      "ĠLiga": 7162,
      "way": 7163,
      "ĠTHá»": 7164,
      "Ġxáº¯c": 7165,
      "ĠThÃº": 7166,
      "DR": 7167,
      "ĠLÃłng": 7168,
      "ĠMÃ£i": 7169,
      "Cháº¯c": 7170,
      "Ġtháº¯p": 7171,
      "ĠBlue": 7172,
      "ĠTRONG": 7173,
      "USD": 7174,
      "ĠtÃ¡t": 7175,
      "awa": 7176,
      "CÄĲ": 7177,
      "ĠMexico": 7178,
      "ĠLen": 7179,
      "ĠLux": 7180,
      "áº¤N": 7181,
      "ĠStore": 7182,
      "set": 7183,
      "Ġcr": 7184,
      "ĠMercedes": 7185,
      "Ġnáº£n": 7186,
      "ĠVá»ĭnh": 7187,
      "Truyá»ĩn": 7188,
      "áº¶T": 7189,
      "98": 7190,
      "ĠTráº¥n": 7191,
      "fr": 7192,
      "ViÃªm": 7193,
      "NghiÃªn": 7194,
      "aba": 7195,
      "Muá»ĳn": 7196,
      "Diá»ĩn": 7197,
      "ĠHÃ²n": 7198,
      "ĠUtd": 7199,
      "Æ£": 7200,
      "ĠgÃ¡y": 7201,
      "iverside": 7202,
      "Al": 7203,
      "Ġmá»ĵm": 7204,
      "á»ım": 7205,
      "appy": 7206,
      "cÃ´": 7207,
      "ĠMÆ¡": 7208,
      "okia": 7209,
      "Ġráº£nh": 7210,
      "LuáºŃt": 7211,
      "Khoáº£ng": 7212,
      "ato": 7213,
      "ĠCNTT": 7214,
      "ĠSi": 7215,
      "Ġcá»«u": 7216,
      "ĠDáºŃu": 7217,
      "ÃģNG": 7218,
      "Ġcáº¡o": 7219,
      "Ġlá»Ńng": 7220,
      "Ġsá»¥n": 7221,
      "Iá»ĢU": 7222,
      "Ġapk": 7223,
      "ĠKhanh": 7224,
      "ĠtuÃ½": 7225,
      "NÃłng": 7226,
      "vin": 7227,
      "ĠMun": 7228,
      "ĠRang": 7229,
      "ĠBeauty": 7230,
      "cong": 7231,
      "ĠkhÃŃt": 7232,
      "ĠWhite": 7233,
      "Ġ220": 7234,
      "ĠPa": 7235,
      "ĠMedia": 7236,
      "ĠGhi": 7237,
      "ĠÄĲáº¥u": 7238,
      "Äĳá»Ļ": 7239,
      "ĠChinh": 7240,
      "ĠEle": 7241,
      "á»¤NG": 7242,
      "Wh": 7243,
      "ĠTag": 7244,
      "Ġnhai": 7245,
      "ĠCá»ĳc": 7246,
      "Lá»±a": 7247,
      "Ġplay": 7248,
      "Ġtien": 7249,
      "123": 7250,
      "ĠDÆ°á»¡ng": 7251,
      "Quá»ĳc": 7252,
      "ĠTÃ³c": 7253,
      "ĠHá»ıi": 7254,
      "ĠDinh": 7255,
      "ĠChrist": 7256,
      "Tai": 7257,
      "Ġngháº¹t": 7258,
      "ĠAdmin": 7259,
      "ova": 7260,
      "Cao": 7261,
      "Ġgoogle": 7262,
      "Ġhanh": 7263,
      "ĠtrÃªu": 7264,
      "Ġmake": 7265,
      "ĠPGS": 7266,
      "ĠChá»¯": 7267,
      "á»ıe": 7268,
      "ĠThan": 7269,
      "Cháº³ng": 7270,
      "Ġios": 7271,
      "nÃ³ng": 7272,
      "ĠNgÆ°": 7273,
      "Ġchui": 7274,
      "pearl": 7275,
      "Ġkhá»ĳn": 7276,
      "can": 7277,
      "ness": 7278,
      "ĠgiÃ¡ng": 7279,
      "(\"": 7280,
      "Ġviáº¿ng": 7281,
      "ĠÄĳá»Ŀ": 7282,
      "oom": 7283,
      "ĠKang": 7284,
      "Lá»£i": 7285,
      "ÄĲÃł": 7286,
      "ĠnhÃłm": 7287,
      "ĠRou": 7288,
      "Tiáº¿n": 7289,
      "ĠxÃ³c": 7290,
      "Ġtháº¯n": 7291,
      "Thi": 7292,
      "Ġtráº§y": 7293,
      "ĠHá»©a": 7294,
      "Ġje": 7295,
      "Ġlá»¥t": 7296,
      "ĠÄĳá»ĳ": 7297,
      "ĠBayern": 7298,
      "ĠCry": 7299,
      "Láº¥y": 7300,
      "ĠnÃ£y": 7301,
      "\";": 7302,
      "ĠLÄ©nh": 7303,
      "ĠWill": 7304,
      "oshi": 7305,
      "GA": 7306,
      "Ká»ĥ": 7307,
      "Ġcáº·n": 7308,
      "Ġday": 7309,
      "ĠHiÃªn": 7310,
      "Ġ86": 7311,
      "ĠDá»°": 7312,
      "Ġgl": 7313,
      "ĠgiÆ¡": 7314,
      "ĠBHYT": 7315,
      "Ġlá»«ng": 7316,
      "ĠFin": 7317,
      "ĠMaria": 7318,
      "ÄĲang": 7319,
      "Ġnhat": 7320,
      "asonic": 7321,
      "Ġbus": 7322,
      "cast": 7323,
      "Ġchá»«": 7324,
      "ĠquáºŃt": 7325,
      "ĠSlot": 7326,
      "ĠÄĳÅ©a": 7327,
      "ĠCáº£i": 7328,
      "ĠShin": 7329,
      "elf": 7330,
      "iber": 7331,
      "PhiÃªn": 7332,
      "IK": 7333,
      "ala": 7334,
      "reat": 7335,
      "may": 7336,
      "ĠFree": 7337,
      "Huyá»ĩn": 7338,
      "Ġ130": 7339,
      "Ġthá»ı": 7340,
      "Ġvá»¥n": 7341,
      "Ġ62": 7342,
      "Ġngáº©ng": 7343,
      "ĠCty": 7344,
      "ĠHOT": 7345,
      "uss": 7346,
      "Ġ125": 7347,
      "Ġmac": 7348,
      "Ġtoan": 7349,
      "ĠGiá»ĳng": 7350,
      ":\"": 7351,
      "Â°": 7352,
      "ĠCáºŃn": 7353,
      "ĠCÃ¡p": 7354,
      "ĠJames": 7355,
      "%;": 7356,
      "ĠHTX": 7357,
      "Ġ024": 7358,
      "TÃ³m": 7359,
      "ĠgáºŃp": 7360,
      "ĠSEA": 7361,
      "ĠHáº¡n": 7362,
      "itar": 7363,
      "ĠÃģi": 7364,
      "ĠAmer": 7365,
      "ds": 7366,
      "Ġ''": 7367,
      "shop": 7368,
      "ĠTrÃ¡nh": 7369,
      "ĠPSG": 7370,
      "áºª": 7371,
      "ĠnhÅ©": 7372,
      "ĠBuÃ´n": 7373,
      "Äģ": 7374,
      "ĠLuÃ´n": 7375,
      "ĠVol": 7376,
      "ĠDai": 7377,
      "ÄĲáº¥t": 7378,
      "Ġtáº¥u": 7379,
      "ĠSARS": 7380,
      "ĠPutin": 7381,
      "Ġthoáº£": 7382,
      "ffee": 7383,
      "ye": 7384,
      "star": 7385,
      "ĠLO": 7386,
      "ations": 7387,
      "ĠLÄĲ": 7388,
      "Ká»³": 7389,
      "Báº±ng": 7390,
      "Ġsays": 7391,
      "ĠÄĳáº¥m": 7392,
      "iter": 7393,
      "ĠkÃ©t": 7394,
      "áº¢NG": 7395,
      "Ġráº¡n": 7396,
      "ĠLá»Ľn": 7397,
      "ĠWordPress": 7398,
      "ĠÄĲÃ¡p": 7399,
      "ĢN": 7400,
      "CE": 7401,
      "Ġrá»Ľt": 7402,
      "á»ĥn": 7403,
      "kinh": 7404,
      "ĠÄĲáºŃu": 7405,
      "ĠOanh": 7406,
      "ĠTráº£i": 7407,
      "lobal": 7408,
      "Ġthá»ĳi": 7409,
      "Hoáº¡t": 7410,
      "ound": 7411,
      "ren": 7412,
      "ĠchÃ¹i": 7413,
      "ĠnÃ¨": 7414,
      "ĠGa": 7415,
      "ĠBáº§u": 7416,
      "Ġá´ł": 7417,
      "ĠCÃłi": 7418,
      "ĠUN": 7419,
      "á»ĩn": 7420,
      "ci": 7421,
      "Ġsup": 7422,
      "ĠPhÃ³ng": 7423,
      "ĠGaming": 7424,
      "Ġrá»Ĺng": 7425,
      "ĠrÃ£": 7426,
      "ĠHÄĲQT": 7427,
      "cua": 7428,
      "mo": 7429,
      "ĠPhá»¥ng": 7430,
      "MC": 7431,
      "sá»ĳ": 7432,
      "MO": 7433,
      "ĠMÆ°á»Ŀng": 7434,
      "raq": 7435,
      "bb": 7436,
      "ĠBos": 7437,
      "ealand": 7438,
      "Ġbáº§y": 7439,
      "Ġthuong": 7440,
      "ĠchÆ°á»Ľng": 7441,
      "ĠJin": 7442,
      "Ġquáº¿": 7443,
      "Ġuá»·": 7444,
      "ĠIN": 7445,
      "Ġnhá»Ľt": 7446,
      "ĠForex": 7447,
      "É´": 7448,
      "ĠDá»ħ": 7449,
      "ootball": 7450,
      "ĠnhÃ¡i": 7451,
      "ĠDá»¤NG": 7452,
      "ĠnhÃ³c": 7453,
      "á»ĺT": 7454,
      "ĠCáº¥u": 7455,
      "âĢ¦âĢ¦âĢ¦âĢ¦âĢ¦âĢ¦âĢ¦âĢ¦": 7456,
      "ĠnháºŃu": 7457,
      "Ġlives": 7458,
      "board": 7459,
      "TÃ¢n": 7460,
      "báº¡n": 7461,
      "Ġdata": 7462,
      "ĠCá»§": 7463,
      "LE": 7464,
      "ĠcÆ°a": 7465,
      "Ġrá»Ĺi": 7466,
      "ĠÄĲáº±ng": 7467,
      "ĠmÄ©": 7468,
      "Ġsáº£": 7469,
      "jpg": 7470,
      "QL": 7471,
      "ĠGP": 7472,
      "TÃ¢m": 7473,
      "ĠTHÃĶNG": 7474,
      "ĠvÃ²m": 7475,
      "Ġ2025": 7476,
      "ĠmÃ©p": 7477,
      "ĠCHÃįNH": 7478,
      "ĠLeg": 7479,
      "ĠTuáº¥t": 7480,
      "ĠKhoáº£n": 7481,
      "Ġnhá»ĵi": 7482,
      "Ġbuá»ĳt": 7483,
      "ĠTháºŃp": 7484,
      "back": 7485,
      "ĠNhÆ°á»£c": 7486,
      "ĠQUá»ĲC": 7487,
      "ĠvÃŃt": 7488,
      "ĠkÃ¬m": 7489,
      "ushi": 7490,
      "BT": 7491,
      "ĠBiáº¿n": 7492,
      "Ġ61": 7493,
      "cean": 7494,
      "ĠSoc": 7495,
      "Ġbody": 7496,
      "res": 7497,
      "Man": 7498,
      "ĠÄĳÃłng": 7499,
      "ĠkÃŃp": 7500,
      "ĠMO": 7501,
      "plant": 7502,
      "Â®": 7503,
      "ĠRiverside": 7504,
      "ĠquyÃªn": 7505,
      "Ġ1975": 7506,
      "Æ¯á»¢C": 7507,
      "DÆ°Æ¡ng": 7508,
      "Ġthiáº¿p": 7509,
      "ĠTHÃĢNH": 7510,
      "ven": 7511,
      "SC": 7512,
      "amb": 7513,
      "ĠCSGT": 7514,
      "á»Ī": 7515,
      "Ġná»Ļ": 7516,
      "phong": 7517,
      "ĠlÃ¬": 7518,
      "âĻ": 7519,
      "nes": 7520,
      "obe": 7521,
      "2006": 7522,
      "ME": 7523,
      "Ġkháº¯t": 7524,
      "!\".": 7525,
      "91": 7526,
      "ĠLaz": 7527,
      "ĠMáº¥y": 7528,
      "ĠHuawei": 7529,
      "ãĢĲ": 7530,
      "ĠComments": 7531,
      "ĠCD": 7532,
      "ĠMor": 7533,
      "Ġmiá»ĩn": 7534,
      "ĠÄĲá»ĺNG": 7535,
      "Ġáº§m": 7536,
      "Æ¯á»ľI": 7537,
      "Ġquyá»ĩn": 7538,
      "ĠGIá»": 7539,
      "ĠXU": 7540,
      "cao": 7541,
      "ĠKÃªnh": 7542,
      "á»ª": 7543,
      "vel": 7544,
      "Ä¨": 7545,
      "Ġtáº£o": 7546,
      "ĠPoker": 7547,
      "ĠThá»ĭt": 7548,
      "Long": 7549,
      "ĠLÃ²": 7550,
      "ĠPR": 7551,
      "ĠPort": 7552,
      "ĠNhá»Ľ": 7553,
      "Song": 7554,
      "ilding": 7555,
      "Ġ160": 7556,
      "Ġmoi": 7557,
      "âĸº": 7558,
      "ĠLin": 7559,
      "of": 7560,
      "ĠBy": 7561,
      "trung": 7562,
      "ãĢĳ": 7563,
      "ipt": 7564,
      "ĠÄĲáº¥ng": 7565,
      "ieng": 7566,
      "Ġráº£i": 7567,
      "Ġyoga": 7568,
      "ĠRoyal": 7569,
      "ez": 7570,
      "ĠnÃ©": 7571,
      "ThÆ°á»Ŀng": 7572,
      "Ġtá»¥t": 7573,
      "ĠAsia": 7574,
      "andal": 7575,
      "emo": 7576,
      "ĠMá»Ļng": 7577,
      "ĠKia": 7578,
      "ider": 7579,
      "ĠxÃ¡t": 7580,
      "Ġthá»ĳt": 7581,
      "Ġupdate": 7582,
      "Ġnung": 7583,
      "Ġngá»Ńa": 7584,
      "ĠArch": 7585,
      "ĠSeoul": 7586,
      "ĠÄĲá»Ĭ": 7587,
      "96": 7588,
      "ĠMá»«ng": 7589,
      "ling": 7590,
      "âĨ": 7591,
      "ĠcÃ²i": 7592,
      "Ġel": 7593,
      "Ġrep": 7594,
      "ĠHer": 7595,
      "aint": 7596,
      "ĠOffice": 7597,
      "ĠLim": 7598,
      "ĠAR": 7599,
      "ĠKen": 7600,
      "light": 7601,
      "Ġpoly": 7602,
      "ĠPDF": 7603,
      "Book": 7604,
      "raft": 7605,
      "ĠmÃ¹ng": 7606,
      "Háº¡": 7607,
      "Ġchuá»ĵng": 7608,
      "Ġphá»ĵng": 7609,
      "azda": 7610,
      "ĠquÃŃ": 7611,
      "Iá»ĤM": 7612,
      "ĠVH": 7613,
      "ĠKHO": 7614,
      "Chung": 7615,
      "å¹´": 7616,
      "Ġngá»Ŀi": 7617,
      "ĠLiá»ĩt": 7618,
      "ÃĲ": 7619,
      "itle": 7620,
      "ĠTáº¥m": 7621,
      "ĠLou": 7622,
      "Ġ225": 7623,
      "Ġandroid": 7624,
      "ĠOf": 7625,
      "FP": 7626,
      "ĠBal": 7627,
      "ĠPhot": 7628,
      "TW": 7629,
      "lad": 7630,
      "ĠvÃ¡c": 7631,
      "ĠTráº¡m": 7632,
      "Trao": 7633,
      "ĠThai": 7634,
      "ĠTU": 7635,
      "ĠTrá»¥": 7636,
      "ĠHÅ©": 7637,
      "Ġbalo": 7638,
      "Ah": 7639,
      "weet": 7640,
      "ĠHá»Ļp": 7641,
      "ĠChina": 7642,
      "order": 7643,
      "Ġshowbiz": 7644,
      "Ġcap": 7645,
      "tinh": 7646,
      "ĠLed": 7647,
      "VÃ²ng": 7648,
      "UA": 7649,
      "ĠIraq": 7650,
      "Ġsá»§a": 7651,
      "ĠHoÃ¡": 7652,
      "Buá»ķi": 7653,
      "ĠNgá»į": 7654,
      "ĠStreet": 7655,
      "urs": 7656,
      "ĠGiÃ¡c": 7657,
      "Ġ81": 7658,
      "ĠPaul": 7659,
      "ĠMark": 7660,
      "ĠngÆ¡": 7661,
      "ÃĤU": 7662,
      "ĠOs": 7663,
      "Ġ128": 7664,
      "Báº¯c": 7665,
      "Ġná»Ľi": 7666,
      "TD": 7667,
      "ĠHá»£i": 7668,
      "Index": 7669,
      "ĠDá»¥c": 7670,
      "ipedia": 7671,
      "ĠYoga": 7672,
      "Ġnáº¥y": 7673,
      "Ã²e": 7674,
      "ĠNgon": 7675,
      "letico": 7676,
      "ĠLÃ¢n": 7677,
      "read": 7678,
      "ĠSINH": 7679,
      "Ġsiáº¿t": 7680,
      "ÃŃp": 7681,
      "ude": 7682,
      "ĠFort": 7683,
      "mon": 7684,
      "á»Ĵ": 7685,
      "ĠphÆ°á»Ľc": 7686,
      "yan": 7687,
      "cer": 7688,
      "tÆ°Æ¡ng": 7689,
      "htm": 7690,
      "ĠBluetooth": 7691,
      "uters": 7692,
      "Ġnail": 7693,
      "Ġkhá»ī": 7694,
      "ĠÌ": 7695,
      "ĠInn": 7696,
      "tá»±": 7697,
      "ChÃºc": 7698,
      "cu": 7699,
      "ĠZealand": 7700,
      "olic": 7701,
      "Ġ--": 7702,
      "Ġtá»īa": 7703,
      "Ġshowroom": 7704,
      "ĠbÆ°á»Ľm": 7705,
      "Ġxáº»": 7706,
      "ĠMini": 7707,
      "Â«": 7708,
      "ĠHáº¡ng": 7709,
      "ĠLÃ´i": 7710,
      "BÃ³ng": 7711,
      "FI": 7712,
      "ĠTuá»ĩ": 7713,
      "ĠRam": 7714,
      "ÃĢO": 7715,
      "ĠsuÃ´n": 7716,
      "dinh": 7717,
      "Ġtáº·c": 7718,
      "Ġhá»ķng": 7719,
      "ival": 7720,
      "SiÃªu": 7721,
      "ĠHáº¯c": 7722,
      "ĠKo": 7723,
      "Chuáº©n": 7724,
      "ĠNhan": 7725,
      "BTC": 7726,
      "Ġpart": 7727,
      "ĠVisa": 7728,
      "ĠxoÃłi": 7729,
      "Ġnoi": 7730,
      "ĠÄĳá»ĳm": 7731,
      "ĠnÃºm": 7732,
      "ĠGÃ³i": 7733,
      "ĠAuto": 7734,
      "Ġthá»¥c": 7735,
      "XX": 7736,
      "Ġbáº©y": 7737,
      "verter": 7738,
      "Ġchen": 7739,
      "ĠTao": 7740,
      "Ġ2030": 7741,
      "ĠJan": 7742,
      "ĠÄĲo": 7743,
      "ĠmÃŃa": 7744,
      "Vay": 7745,
      "Ġáº£": 7746,
      "ĠKhá»ıe": 7747,
      "HLV": 7748,
      "Tháº¥y": 7749,
      "ks": 7750,
      "ĠSÃłn": 7751,
      "ĠPage": 7752,
      "ĠAss": 7753,
      "ĠGH": 7754,
      "ves": 7755,
      "unction": 7756,
      "ĠÄĲáº¦U": 7757,
      "Ġmin": 7758,
      "Ġpoker": 7759,
      "MÃł": 7760,
      "Ġion": 7761,
      "ĠâĢº": 7762,
      "oph": 7763,
      "ĠCHI": 7764,
      "Nháº±m": 7765,
      "ĠnhÃºng": 7766,
      "ikipedia": 7767,
      "Ġphá»ĳt": 7768,
      "LINE": 7769,
      "Kháº£": 7770,
      "QH": 7771,
      "ĠxÃ´n": 7772,
      "ĠQUAN": 7773,
      "Ġ77": 7774,
      "ĠBMW": 7775,
      "Káº¿": 7776,
      "Ġ96": 7777,
      "ĠbÃ¨n": 7778,
      "Ġtrá»ĩt": 7779,
      "ĠDA": 7780,
      "phÃºt": 7781,
      "ĠMTTQ": 7782,
      "Ġhá»§": 7783,
      "ĠXÃ©t": 7784,
      "uba": 7785,
      "ira": 7786,
      "nd": 7787,
      "cap": 7788,
      "ĠPHáº¨M": 7789,
      "ĠItalia": 7790,
      "facebook": 7791,
      "Ġ76": 7792,
      "XÃ£": 7793,
      "ĠJose": 7794,
      "ŃĲ": 7795,
      "Ġ78": 7796,
      "cess": 7797,
      "istics": 7798,
      "eral": 7799,
      "ĠTor": 7800,
      "Shop": 7801,
      "we": 7802,
      "Ã¢t": 7803,
      "Ġ450": 7804,
      "ĠReuters": 7805,
      "Ġhormone": 7806,
      "ĠnhÃ¡t": 7807,
      "aker": 7808,
      "ĠXÆ°Æ¡ng": 7809,
      "Ġgáº·t": 7810,
      "oshop": 7811,
      "ĠLuyá»ĩn": 7812,
      "ĠFu": 7813,
      "eco": 7814,
      "ĠmÃºt": 7815,
      "ĠÄĲÃģ": 7816,
      "¨C": 7817,
      "ĠTá»ĭch": 7818,
      "its": 7819,
      "HÃłn": 7820,
      "Ġship": 7821,
      "icle": 7822,
      "irst": 7823,
      "TK": 7824,
      "ior": 7825,
      "ThÆ°": 7826,
      "VÅ©": 7827,
      "GiÃºp": 7828,
      "Ġloan": 7829,
      "chá»ĭ": 7830,
      "ingroup": 7831,
      "ĠSá»Ĳ": 7832,
      "off": 7833,
      "ÃĵA": 7834,
      "Ġthá»ģ": 7835,
      "ĠTravel": 7836,
      "ken": 7837,
      "Ġgiáº¥m": 7838,
      "AGL": 7839,
      "ĠlÃ¡ch": 7840,
      "Ġpiano": 7841,
      "Ġtá»³": 7842,
      "FT": 7843,
      "Ġhave": 7844,
      "ĠAf": 7845,
      "BET": 7846,
      "ĠHung": 7847,
      "IG": 7848,
      "cÃ¡i": 7849,
      "ĠBook": 7850,
      "ict": 7851,
      "Ġ140": 7852,
      "ous": 7853,
      "Váº¥n": 7854,
      "Ġlim": 7855,
      "ents": 7856,
      "udi": 7857,
      "Ġmáº«n": 7858,
      "ĠVina": 7859,
      "ĠJong": 7860,
      "May": 7861,
      "vÃ¬": 7862,
      "Ġtáº¥p": 7863,
      "ĠÄĲK": 7864,
      "Ġbáº»": 7865,
      "Ġ365": 7866,
      "Ġid": 7867,
      "nhÆ°ng": 7868,
      "Ġstart": 7869,
      "Å¨": 7870,
      "Ġren": 7871,
      "ender": 7872,
      "ĠMá»ļI": 7873,
      "Ġngáº£": 7874,
      "ĠCard": 7875,
      "ĠThÃ¬n": 7876,
      "den": 7877,
      "nghi": 7878,
      "ÄĲá»Ļng": 7879,
      "Ġtrau": 7880,
      "Ġâľ": 7881,
      "Ġ84": 7882,
      "Ġsáº¥u": 7883,
      "ĠFire": 7884,
      "Ġ1990": 7885,
      "nology": 7886,
      "Ġvip": 7887,
      "ĠNÄĤM": 7888,
      "ĠInf": 7889,
      "Há»ıi": 7890,
      "ĠTrans": 7891,
      "ÃĬM": 7892,
      "under": 7893,
      "Ġmet": 7894,
      "Ġngáº¡o": 7895,
      "Ġtá»ĳng": 7896,
      "ffet": 7897,
      "Mar": 7898,
      "RL": 7899,
      "bai": 7900,
      "ĠTRÆ¯á»ľNG": 7901,
      "Ġnuá»ĳi": 7902,
      "Chá»©ng": 7903,
      "fer": 7904,
      "Ġtáº©m": 7905,
      "ander": 7906,
      "bu": 7907,
      "oli": 7908,
      "Ġtá»§y": 7909,
      "right": 7910,
      "ĠDon": 7911,
      "ĠDÆ°": 7912,
      "KhÃ³a": 7913,
      "ĠNor": 7914,
      "ĠRich": 7915,
      "ĠBel": 7916,
      "Quáº£": 7917,
      "Ġdis": 7918,
      "ĠrÃ³t": 7919,
      "iko": 7920,
      "zo": 7921,
      "ĠLÃĿ": 7922,
      "pháº£i": 7923,
      "ĠSá»ķ": 7924,
      "ĠnhÃŃu": 7925,
      "ĠChÃłng": 7926,
      "thÃłnh": 7927,
      "ĠYamaha": 7928,
      "bong": 7929,
      "ĠCáº§m": 7930,
      "tream": 7931,
      "Ġpháº¥t": 7932,
      "ĠTiá»ĩn": 7933,
      "Ġseries": 7934,
      "brid": 7935,
      "ĠNiá»ĩm": 7936,
      "ĠDig": 7937,
      "Ġná»ī": 7938,
      "ĠOpen": 7939,
      "Ġlá»Ŀ": 7940,
      "Da": 7941,
      "burg": 7942,
      "ĠNN": 7943,
      "ĠCentral": 7944,
      "NgÃłnh": 7945,
      "ÃģN": 7946,
      "Æ¯á»¢NG": 7947,
      "ms": 7948,
      "ĠBÃłng": 7949,
      "subishi": 7950,
      "ager": 7951,
      "ĠhÃ¢n": 7952,
      "ĠTÆ°á»£ng": 7953,
      "VC": 7954,
      "Ġhá»ĳt": 7955,
      "Tháº§y": 7956,
      "ĠHá»ĺI": 7957,
      "ĠBL": 7958,
      "ĠCTC": 7959,
      "ĠGian": 7960,
      "egas": 7961,
      "erson": 7962,
      "ĠTAND": 7963,
      "Ġ123": 7964,
      "GiÃ¡m": 7965,
      "áºłO": 7966,
      "Ġ//": 7967,
      "tho": 7968,
      "ĠTá»Ľi": 7969,
      "120": 7970,
      "ĠTrade": 7971,
      "ets": 7972,
      "ĠNguyen": 7973,
      "Ġthuá»Ł": 7974,
      "CÃĶNG": 7975,
      "ĠSS": 7976,
      "Ġ2002": 7977,
      "ĠPlaza": 7978,
      "Ĺı": 7979,
      "ĠhÃ³c": 7980,
      "ĠDá»±a": 7981,
      "ĠlÅ©ng": 7982,
      "Ġdau": 7983,
      "lette": 7984,
      "ÄĲa": 7985,
      "ĠChiÃªu": 7986,
      "Ġmix": 7987,
      "ĠVinpearl": 7988,
      "ids": 7989,
      "ston": 7990,
      "Ġkhang": 7991,
      "TrÃ²": 7992,
      "ĠÃį": 7993,
      "Ġphiáº¿n": 7994,
      "long": 7995,
      "ĠVá»¤": 7996,
      "ĠVilla": 7997,
      "CCC": 7998,
      "Dáº§u": 7999,
      "Ġhoáº¡n": 8000,
      "ĠkhÃ³e": 8001,
      "Ġna": 8002,
      "ĠPay": 8003,
      "ÄĲÃªm": 8004,
      "ĠPhÃ¡": 8005,
      "ĠVictor": 8006,
      "phi": 8007,
      "ĠphÆ°á»£ng": 8008,
      "ĠGiá»¯a": 8009,
      "ĠYoung": 8010,
      "quoc": 8011,
      "ĠTOP": 8012,
      "ĠÃª": 8013,
      "ĠbÃºp": 8014,
      "ĠVá»įng": 8015,
      "ĠCAO": 8016,
      "ĠTower": 8017,
      "ĠSeries": 8018,
      "kok": 8019,
      "Ġ73": 8020,
      "ĠMore": 8021,
      "ĠTá»«ng": 8022,
      "ĠVÄĤN": 8023,
      "ison": 8024,
      "aphone": 8025,
      "ĠGeor": 8026,
      "xá»ķ": 8027,
      "ĠHuyáº¿t": 8028,
      "ĠSur": 8029,
      "Ġfanpage": 8030,
      "MÆ¡": 8031,
      "ĠpH": 8032,
      "ĠVáº«n": 8033,
      "???": 8034,
      "\").": 8035,
      "Ġcuá»ĳng": 8036,
      "Ġsáº¡t": 8037,
      "Ġ028": 8038,
      "count": 8039,
      "ĠPanasonic": 8040,
      "Ġvung": 8041,
      "ĠRi": 8042,
      "ĠCÃ¢n": 8043,
      "Tráº£i": 8044,
      "hu": 8045,
      "ĠBuá»ķi": 8046,
      "ĠFootball": 8047,
      "ĠGIA": 8048,
      "ĠFLC": 8049,
      "ĠLive": 8050,
      "tron": 8051,
      "ric": 8052,
      "999": 8053,
      "NÃ¢ng": 8054,
      "Ġcopy": 8055,
      "ĠKá»": 8056,
      "Ġ92": 8057,
      "enger": 8058,
      "You": 8059,
      "ĠtrÃ¹": 8060,
      "ĠCollagen": 8061,
      "Ngá»įc": 8062,
      "ute": 8063,
      "ĠthiÃªu": 8064,
      "Ġprotect": 8065,
      "Ġbiáº¿ng": 8066,
      "ĠLight": 8067,
      "ĠRá»Ńa": 8068,
      "ibank": 8069,
      "ĠðŁĺ": 8070,
      "Ġtanh": 8071,
      "Ġbanh": 8072,
      "Ġdá»©a": 8073,
      "ĠPha": 8074,
      "aily": 8075,
      "ĠGá»įi": 8076,
      "ĠÄĳá»Ļn": 8077,
      "Tranh": 8078,
      "lÃ´": 8079,
      "ĠTáº£": 8080,
      "apan": 8081,
      "ĠÄĲá»ĳc": 8082,
      "ĠtrÃ³c": 8083,
      "Ġhá»Ŀ": 8084,
      "chu": 8085,
      "ÂŃ": 8086,
      "Ġfr": 8087,
      "ViÃªn": 8088,
      "ĠNá»ķi": 8089,
      "ĠGran": 8090,
      "ika": 8091,
      "1000": 8092,
      "ĠPhu": 8093,
      "Ġcomments": 8094,
      "ÑĤ": 8095,
      "ĠHáº£o": 8096,
      "BB": 8097,
      "tre": 8098,
      "Ġdáº«u": 8099,
      "NS": 8100,
      "yÃªn": 8101,
      "ĠÄĳÃ¨o": 8102,
      "Ġvá»Ŀ": 8103,
      "âľħ": 8104,
      "sao": 8105,
      "ĠTháº¡c": 8106,
      "ĠTK": 8107,
      "ĠSk": 8108,
      "ĠXI": 8109,
      "93": 8110,
      "eland": 8111,
      "NgÃ´i": 8112,
      "ĠRet": 8113,
      "ÄĲÃ¡": 8114,
      "ĠLÃĢM": 8115,
      "list": 8116,
      "ĠlÃ³c": 8117,
      "ĠFun": 8118,
      "ubet": 8119,
      "ĠrÃ£nh": 8120,
      "ĠMÃ£o": 8121,
      "ĠDell": 8122,
      "LÆ°á»£t": 8123,
      "Ġná»ĥ": 8124,
      "no": 8125,
      "ĠKhÃ´i": 8126,
      "ĠTur": 8127,
      "Express": 8128,
      "92": 8129,
      "å½": 8130,
      "ĠTÃ¡t": 8131,
      "ĠKhuÃª": 8132,
      "quy": 8133,
      "Ġnu": 8134,
      "Ã³e": 8135,
      "ĠBox": 8136,
      "ĠUá»·": 8137,
      "ĠMazda": 8138,
      "Bet": 8139,
      "ĠngÃ³i": 8140,
      "ĠxoÃ¡y": 8141,
      "Ġcá»Ńu": 8142,
      "ĠKháº©u": 8143,
      "Ġ^": 8144,
      "ĠTrÃ¢m": 8145,
      "Ġphá»¥ng": 8146,
      "ĠPT": 8147,
      "ĠThÃ´i": 8148,
      "Quyáº¿t": 8149,
      "ĠTel": 8150,
      "ÃĵNG": 8151,
      "VÆ°Æ¡ng": 8152,
      "ĠÄĲá»ģn": 8153,
      "email": 8154,
      "ĠÄĳáº£": 8155,
      "ĠSO": 8156,
      "Äĳá»ĳi": 8157,
      "Cáº¥u": 8158,
      "ĠchÃ¨o": 8159,
      "ÃģI": 8160,
      "ift": 8161,
      "Ġmá»ĳt": 8162,
      "ÃĢNG": 8163,
      "ĠÄĳáº½": 8164,
      "ĠFed": 8165,
      "Ġngáº©n": 8166,
      "Cá»©": 8167,
      "ĠtÃ¡nh": 8168,
      "ĠvÃły": 8169,
      "ĠForm": 8170,
      "Hiá»ĩu": 8171,
      "ĠOcean": 8172,
      "LÃ£nh": 8173,
      "mark": 8174,
      "ĠSE": 8175,
      "ĠDragon": 8176,
      "Ġnga": 8177,
      "ĠCPU": 8178,
      "Ġbá»ĵng": 8179,
      "ĠnghÃªnh": 8180,
      "Ġcup": 8181,
      "ĠTá»ª": 8182,
      "ĠDay": 8183,
      "sá»±": 8184,
      "ape": 8185,
      "tions": 8186,
      "ĠCat": 8187,
      "ĠKB": 8188,
      "ĠOl": 8189,
      "Ġ).": 8190,
      "Ġwill": 8191,
      "ĠCá»©u": 8192,
      "ĠNgÆ°u": 8193,
      "ĠNV": 8194,
      "Ġyáº¿m": 8195,
      "ĠcÃły": 8196,
      "Ġlive": 8197,
      "Thiáº¿u": 8198,
      "Ġkhoanh": 8199,
      "revious": 8200,
      "á»®NG": 8201,
      "ĠThá»Ń": 8202,
      "ChÃ¢n": 8203,
      "XÃ©t": 8204,
      "dung": 8205,
      "Ġ2001": 8206,
      "hot": 8207,
      "Ġváº¥p": 8208,
      "Ġseo": 8209,
      "TTg": 8210,
      "ĠYu": 8211,
      "tá»©c": 8212,
      "97": 8213,
      "gin": 8214,
      "Tiáº¿t": 8215,
      "ĠLaser": 8216,
      "emy": 8217,
      "Ġsale": 8218,
      "ĠAtletico": 8219,
      "ĠmiÃªn": 8220,
      "ĠKiá»ĩn": 8221,
      "ĠBill": 8222,
      "ĠMeg": 8223,
      "ĠsÃºp": 8224,
      "Ġdáº¥n": 8225,
      "Ġpháº«n": 8226,
      "key": 8227,
      "Ġlá»ĳc": 8228,
      "Pháº¡m": 8229,
      "ĠRock": 8230,
      "Dr": 8231,
      "ĠSand": 8232,
      "EU": 8233,
      "ĠHÃło": 8234,
      "Æ°á»Ľn": 8235,
      "ĠChÃło": 8236,
      "ways": 8237,
      "ĠvÄĥng": 8238,
      "Ġmáº§u": 8239,
      "ĠVTC": 8240,
      "asc": 8241,
      "aku": 8242,
      "ĠVingroup": 8243,
      "ĠNhiá»ĩm": 8244,
      "ĠkhoÃ¡t": 8245,
      "ĠChrome": 8246,
      "Ġsáº£ng": 8247,
      "soi": 8248,
      "ĠMichael": 8249,
      "âĢ¦,": 8250,
      "Ġnháº¥c": 8251,
      "ĠsÃłi": 8252,
      "hoc": 8253,
      "Mang": 8254,
      ":ãĢĤ": 8255,
      "ĠNHÃĤN": 8256,
      "ĠHuÃ¢n": 8257,
      "ĠTrÃłm": 8258,
      "Ġmá»³": 8259,
      "ĠUyá»ĥn": 8260,
      "ĠHÃ¨": 8261,
      "ĠHigh": 8262,
      "Ġ87": 8263,
      "âĢĶâĢĶâĢĶâĢĶ": 8264,
      "ĠNGHIá»ĨP": 8265,
      "ĠTan": 8266,
      "ĠFIFA": 8267,
      "ĠSUV": 8268,
      "Ġtháº£y": 8269,
      "ĠCá»±u": 8270,
      "ĠVá»ļI": 8271,
      "BÃ©": 8272,
      "Ġlon": 8273,
      "KÃŃnh": 8274,
      "Ġ82": 8275,
      "Ġki": 8276,
      "Ġ74": 8277,
      "Ġserver": 8278,
      "Vá»£": 8279,
      "una": 8280,
      "QuáºŃn": 8281,
      "content": 8282,
      "ĠBlock": 8283,
      "Ġkhoáº¯n": 8284,
      "ĠUniversity": 8285,
      "Ġlá»¯": 8286,
      "Æ°Æ¡u": 8287,
      "ugin": 8288,
      "NA": 8289,
      "XÃ¡c": 8290,
      "ĠLá»¯": 8291,
      "Ġoffline": 8292,
      "Ġkhong": 8293,
      "ĠGolf": 8294,
      "ĠvÃ¡": 8295,
      "ĠRÆ°á»£u": 8296,
      "lott": 8297,
      "cÃ²n": 8298,
      "ĠKey": 8299,
      "ovic": 8300,
      "gan": 8301,
      "lan": 8302,
      "ĠSai": 8303,
      "Triá»ĩu": 8304,
      "ĠDT": 8305,
      "ping": 8306,
      "yc": 8307,
      "ĠCafe": 8308,
      "ĠÄĲáºłI": 8309,
      "ĠSum": 8310,
      "Ġcat": 8311,
      "ĠTÃºi": 8312,
      "ĠJung": 8313,
      "ius": 8314,
      "nhan": 8315,
      "jet": 8316,
      "Äĥk": 8317,
      "Ġcháº£nh": 8318,
      "Ġbá»ķn": 8319,
      "áº®C": 8320,
      "ĠCore": 8321,
      "Ġ888": 8322,
      "dio": 8323,
      "ĠPP": 8324,
      "ĠTÃ¡o": 8325,
      "ĠKÃ¨o": 8326,
      "ĠIT": 8327,
      "Ġ1999": 8328,
      "KhÃ¡c": 8329,
      "HN": 8330,
      "ĠClin": 8331,
      "Ġnhá»§": 8332,
      "ĠHAGL": 8333,
      "eek": 8334,
      "Ġngáº«m": 8335,
      "ĠGel": 8336,
      "Ġsty": 8337,
      "ĠxoÄĥn": 8338,
      "zy": 8339,
      "ĠLat": 8340,
      "ĠPhÃª": 8341,
      "sex": 8342,
      "ĠJava": 8343,
      "ĠCode": 8344,
      "NQ": 8345,
      "âĢ¦..": 8346,
      "uts": 8347,
      "IL": 8348,
      "Hay": 8349,
      "otton": 8350,
      "Ġ/>": 8351,
      "ĠvnÄĳ": 8352,
      "Ġå": 8353,
      "ĠKáº»": 8354,
      "ordred": 8355,
      "++": 8356,
      "View": 8357,
      "ĠPCCC": 8358,
      "EF": 8359,
      "HoÃłn": 8360,
      "ĠCel": 8361,
      "anel": 8362,
      "Linh": 8363,
      "ĠGV": 8364,
      "ĠON": 8365,
      "hang": 8366,
      "vice": 8367,
      "Ġxsmb": 8368,
      "Ġhen": 8369,
      "Ġdep": 8370,
      "ĠTáº¡ng": 8371,
      "ĠMINH": 8372,
      "ĠgÃ²n": 8373,
      "ĠPoly": 8374,
      "reak": 8375,
      "ĠtÃŃa": 8376,
      "****": 8377,
      "pop": 8378,
      "SA": 8379,
      "hÃ¬nh": 8380,
      "ÄĲá»Ŀi": 8381,
      "ĠDá»±ng": 8382,
      "ĠÃĶn": 8383,
      "BL": 8384,
      "ĠÄĲau": 8385,
      "æĹ": 8386,
      "Ġgá»įt": 8387,
      "BM": 8388,
      "ĠNGÆ¯á»ľI": 8389,
      "ÃĶN": 8390,
      "Ġtech": 8391,
      "online": 8392,
      "ÄĲáº¡o": 8393,
      "Ġngáº¥m": 8394,
      "ĠVang": 8395,
      "Ġif": 8396,
      "VA": 8397,
      "Ġsá»įc": 8398,
      "ĠNano": 8399,
      "Cha": 8400,
      "ĠMA": 8401,
      "gar": 8402,
      "mund": 8403,
      "web": 8404,
      "Ġthá»ģm": 8405,
      "Ġsoc": 8406,
      "SÆ¡n": 8407,
      "Ġhost": 8408,
      "ĠQuÃł": 8409,
      "ĠThuÃª": 8410,
      "aly": 8411,
      "ati": 8412,
      "other": 8413,
      "\")": 8414,
      "Ġpho": 8415,
      "ĠTráº§m": 8416,
      "ker": 8417,
      "ĠBá»ı": 8418,
      "ĠComm": 8419,
      "ĠThiÃªm": 8420,
      "urr": 8421,
      "ÄĳÃ¡nh": 8422,
      "bÃ¡n": 8423,
      "ret": 8424,
      "tÃ´i": 8425,
      "Ġváº£y": 8426,
      "cha": 8427,
      "px": 8428,
      "Ġbitcoin": 8429,
      "Ġtuyen": 8430,
      "ĠResid": 8431,
      "Ġhand": 8432,
      "ĠBT": 8433,
      "Uá»ĳng": 8434,
      "ĠrÃ¹a": 8435,
      "ĠPe": 8436,
      "ĠKT": 8437,
      "][": 8438,
      "ĠCÃłng": 8439,
      "ĠThuyáº¿t": 8440,
      "thiáº¿t": 8441,
      "Ġ97": 8442,
      "minh": 8443,
      "ĠSC": 8444,
      "ĠAug": 8445,
      "Ġkey": 8446,
      "ĠHá»ĵn": 8447,
      "ĠNokia": 8448,
      "sá»ĳng": 8449,
      "ĠThom": 8450,
      "ĠShopee": 8451,
      "ĠnghÃłnh": 8452,
      "ĠPhá»ĳi": 8453,
      "ChÆ¡i": 8454,
      "Khoa": 8455,
      "Ġmá»©t": 8456,
      "ĠKl": 8457,
      "Ġvá»¯a": 8458,
      "94": 8459,
      "Ġur": 8460,
      "ĠModel": 8461,
      "ĠÃ¹n": 8462,
      "ĠRem": 8463,
      "ÄĲÃ´ng": 8464,
      "ĠTRÃĮNH": 8465,
      "BN": 8466,
      "ĠbÃ¡i": 8467,
      "Ø§": 8468,
      "RP": 8469,
      "nguyen": 8470,
      "une": 8471,
      "ĠTrá»£": 8472,
      "Bl": 8473,
      "Ġart": 8474,
      "================": 8475,
      "Ġ91": 8476,
      "Báº¡ch": 8477,
      "Vin": 8478,
      "Ġsáº¡m": 8479,
      "ĠNoel": 8480,
      "Ġtháº¡c": 8481,
      "ĠGlobal": 8482,
      "SV": 8483,
      "ĠFace": 8484,
      "raph": 8485,
      "met": 8486,
      "add": 8487,
      "Ġteen": 8488,
      "ĠÄĲiá»ĩp": 8489,
      "ĠNháº±m": 8490,
      "Ġ71": 8491,
      "Äĳáº¡i": 8492,
      "IÃĬU": 8493,
      "SÃ¡ch": 8494,
      "Ġlá»¥y": 8495,
      "Ġthá»ĳn": 8496,
      "áº³m": 8497,
      "ĠTrÃ¢n": 8498,
      "ahoo": 8499,
      "ÄĲÃ¡ng": 8500,
      "zym": 8501,
      "ĠGiá»¯": 8502,
      "ĠNhÃ¢m": 8503,
      "ĠQuyÃªn": 8504,
      "umi": 8505,
      "ĠTHIáº¾T": 8506,
      "ĠColor": 8507,
      "Máº¹o": 8508,
      "ould": 8509,
      "ĠUng": 8510,
      "Ġago": 8511,
      "ĠphÆ°á»£t": 8512,
      "quang": 8513,
      "ĠĠ": 8514,
      "ĠHom": 8515,
      "amond": 8516,
      "ĠEco": 8517,
      "ĠAD": 8518,
      "Ġáº¥u": 8519,
      "ĠGÃ³c": 8520,
      "Ġgiá»¥": 8521,
      "ĠWatch": 8522,
      "ĠThuá»·": 8523,
      "ĠLá»Ĺi": 8524,
      "Ġed": 8525,
      "ĠLoa": 8526,
      "Ġind": 8527,
      "ĠDC": 8528,
      "ĠAk": 8529,
      "Sá»ĳng": 8530,
      "UM": 8531,
      "ĠTeam": 8532,
      "ĠTrÃ£i": 8533,
      "ovo": 8534,
      "ifone": 8535,
      "Di": 8536,
      "Ġtua": 8537,
      "Ġgram": 8538,
      "sáº½": 8539,
      "Ġláº¹": 8540,
      "ĠChá»¯a": 8541,
      "...]": 8542,
      "ĠhÃ¡o": 8543,
      "edd": 8544,
      "ĠIp": 8545,
      "Äĳi": 8546,
      "eymar": 8547,
      "Láº¡i": 8548,
      "Kiá»ĥu": 8549,
      "Ġ....": 8550,
      "Ġke": 8551,
      "ĠngÃłng": 8552,
      "ĠhÃ¨n": 8553,
      "ĠÄĲÆ°a": 8554,
      "Ãµng": 8555,
      "ĠsuÃ½t": 8556,
      "ĠAct": 8557,
      "%),": 8558,
      "info": 8559,
      "wa": 8560,
      "ĠTuyá»ģn": 8561,
      "ĠEp": 8562,
      "ĠTrÃ¹ng": 8563,
      "ĠXIII": 8564,
      "Ġcoin": 8565,
      "ĠsÃ¡o": 8566,
      "Ser": 8567,
      "ĠTi": 8568,
      "cháº¥t": 8569,
      "ĠFile": 8570,
      "led": 8571,
      "ĠPHÃģP": 8572,
      "ĠLÃ£ng": 8573,
      "Ġtháº¯m": 8574,
      "ĠEth": 8575,
      "ĠPHáº¦N": 8576,
      "ĠtrÄĥn": 8577,
      "Ġpass": 8578,
      "nect": 8579,
      "ĠngÃ¡n": 8580,
      "Ġbá»©t": 8581,
      "Ġráº¡ch": 8582,
      "dat": 8583,
      "Ġ83": 8584,
      "ollow": 8585,
      "ĠphÃ´i": 8586,
      "iff": 8587,
      "ĠÄĲá»ĩ": 8588,
      "quáºŃn": 8589,
      "káº¿t": 8590,
      "oint": 8591,
      "por": 8592,
      "ĠMir": 8593,
      "ĠÃºp": 8594,
      "ĠÄĲIá»ĨN": 8595,
      "Máº¥y": 8596,
      "Ġsub": 8597,
      "ĠÄĲÃ´n": 8598,
      "ĠLCD": 8599,
      "file": 8600,
      "ThÃŃch": 8601,
      "EP": 8602,
      "ĠTáº§m": 8603,
      "asa": 8604,
      "ĠUr": 8605,
      "ĠNGÃĢY": 8606,
      "giao": 8607,
      "âĿ": 8608,
      "ĠsÃło": 8609,
      "amine": 8610,
      "ublic": 8611,
      "UYá»Ĩ": 8612,
      "ĠÆ¯á»Ľc": 8613,
      "df": 8614,
      "ĠVen": 8615,
      "bia": 8616,
      "ista": 8617,
      "nal": 8618,
      "shine": 8619,
      "Ġprotected": 8620,
      "uo": 8621,
      "ĠBáºłN": 8622,
      "Ġtá»¥y": 8623,
      "Cá»ĳ": 8624,
      "ĠEnglish": 8625,
      "ĠÃºy": 8626,
      "Rá»ĵi": 8627,
      "ĠSK": 8628,
      "á»ģm": 8629,
      "Khá»Łi": 8630,
      "ftcode": 8631,
      "ĠCNC": 8632,
      "ved": 8633,
      "zz": 8634,
      "ĠdÃ¨": 8635,
      "ĠâĢ¦.": 8636,
      "Ġml": 8637,
      "ĠVer": 8638,
      "Truyá»ģn": 8639,
      "oucher": 8640,
      "ĠRÄĥng": 8641,
      "PhÃŃa": 8642,
      "Ġbá»ĭt": 8643,
      "Ġtnh": 8644,
      "ĠOK": 8645,
      "ĠCC": 8646,
      "club": 8647,
      "ĠSerie": 8648,
      "ĠHit": 8649,
      "ĠPol": 8650,
      "Giá»ĳng": 8651,
      "ĠFlor": 8652,
      "ĠRiver": 8653,
      "ĠMS": 8654,
      "qui": 8655,
      "Ġmail": 8656,
      "ĠhÃ¡": 8657,
      ",âĢ¦.": 8658,
      "Sp": 8659,
      "view": 8660,
      "ila": 8661,
      "ĠTIáº¾T": 8662,
      "ĠPháº£n": 8663,
      "ĠngÃ¡y": 8664,
      "ĠXa": 8665,
      "Ġhoc": 8666,
      "ĠNik": 8667,
      "Vn": 8668,
      "ĠMáº§m": 8669,
      "TráºŃn": 8670,
      "phu": 8671,
      "nay": 8672,
      "ĠSuá»ĳi": 8673,
      "ĠBangkok": 8674,
      "Dung": 8675,
      "reg": 8676,
      "ĠThuá»Ļt": 8677,
      "Ġváº«y": 8678,
      "ĠLip": 8679,
      "HÃ£ng": 8680,
      "Ãģnh": 8681,
      "obi": 8682,
      "ibaba": 8683,
      "ĠngÃ³": 8684,
      "ĠOut": 8685,
      "HÆ°Æ¡ng": 8686,
      "ĠnhÃło": 8687,
      "Ġtrá»ķ": 8688,
      "Ġphen": 8689,
      "Lo": 8690,
      "Ġdáº§m": 8691,
      "Ġitem": 8692,
      "\"âĢ¦": 8693,
      "ĠcÃ²": 8694,
      "Ġmag": 8695,
      "2005": 8696,
      "Dá»±a": 8697,
      "IDV": 8698,
      "ĠTHá»Ĭ": 8699,
      "Xu": 8700,
      "Ġsl": 8701,
      "ĠXÃ¡": 8702,
      "bÃłi": 8703,
      "Ñģ": 8704,
      "ĠÃºt": 8705,
      "Ġdan": 8706,
      "Ġngháº¹n": 8707,
      "ĠLos": 8708,
      "ennis": 8709,
      "há»įc": 8710,
      "áºłT": 8711,
      "äº": 8712,
      "Ġvest": 8713,
      "ĠSkin": 8714,
      "els": 8715,
      "Ġcontent": 8716,
      "LA": 8717,
      "ĠPart": 8718,
      "åī": 8719,
      "ĠÄĲÃ¢u": 8720,
      "This": 8721,
      "ĠBTS": 8722,
      "ema": 8723,
      "Next": 8724,
      "ĠTÃį": 8725,
      "Ġ$(": 8726,
      "ĠCream": 8727,
      "ĠChang": 8728,
      "Ġcorona": 8729,
      "ĠxÆ°á»Ľng": 8730,
      "vÃŃ": 8731,
      "Ġtone": 8732,
      "Ġbook": 8733,
      "ĠtÃ¡ng": 8734,
      "ĠCÃ¡n": 8735,
      "á»¬A": 8736,
      "Plus": 8737,
      "ĠKe": 8738,
      "TÃ¢y": 8739,
      "Ġmo": 8740,
      "PhÃº": 8741,
      "ĠZen": 8742,
      "lywood": 8743,
      "Ġ]": 8744,
      "Iá»ĦN": 8745,
      "QuÃ¢n": 8746,
      "ĠAcid": 8747,
      "ĠCHÃļ": 8748,
      "Ġlogic": 8749,
      "ĠMáº¹o": 8750,
      "ĠLove": 8751,
      "ĠSM": 8752,
      "Ġhan": 8753,
      "Ġ247": 8754,
      "Ġkali": 8755,
      "Tháº©m": 8756,
      "ĠRub": 8757,
      "ĠId": 8758,
      "Ġok": 8759,
      "Bá»ĳ": 8760,
      "seo": 8761,
      "ĠCáº¤P": 8762,
      "Ġtáº¡c": 8763,
      "Há»ĵi": 8764,
      "Ġxá»ĩ": 8765,
      "ĠDáº¥u": 8766,
      "TrÃ¡i": 8767,
      "ĠSá»©": 8768,
      "ĠImp": 8769,
      "ĠBosch": 8770,
      "TÄĲ": 8771,
      "Ġgiáº§y": 8772,
      "ĠBÃ´ng": 8773,
      "ĠBÃŃnh": 8774,
      "ĠVinaphone": 8775,
      "Ġthong": 8776,
      "aa": 8777,
      "siÃªu": 8778,
      "ĠGet": 8779,
      "Giai": 8780,
      "Khai": 8781,
      "JC": 8782,
      "????": 8783,
      "cÅ©ng": 8784,
      "acom": 8785,
      "Phi": 8786,
      "ĠbÃŃt": 8787,
      "QuÃ¡n": 8788,
      "rush": 8789,
      "ĠRÃµ": 8790,
      "________": 8791,
      "UYá»ĢN": 8792,
      "Biá»ĥu": 8793,
      "ĠXX": 8794,
      "RI": 8795,
      "Ġxá»ĭn": 8796,
      "ĠThÃŃ": 8797,
      "Ġsexy": 8798,
      "Fast": 8799,
      "Ġbá»į": 8800,
      "ÄĳÆ°á»Ŀng": 8801,
      "ÄĲá»ĭnh": 8802,
      "ĠHall": 8803,
      "round": 8804,
      "igo": 8805,
      "ĠMobi": 8806,
      "åĽ": 8807,
      "ĠLis": 8808,
      "Ġnháº¹n": 8809,
      "stal": 8810,
      "bour": 8811,
      "Ġamin": 8812,
      "ĠLife": 8813,
      "Ġip": 8814,
      "ĠbÃªnh": 8815,
      "ĠÃģN": 8816,
      "Trá»Ł": 8817,
      "ĠGiáº£n": 8818,
      "ĠCoffee": 8819,
      "sá»Ńa": 8820,
      "ĠAndre": 8821,
      "Ġlá»ģu": 8822,
      "âŀ": 8823,
      "ĠmÃŃt": 8824,
      "ĠBur": 8825,
      "ĠVai": 8826,
      "VáºŃn": 8827,
      "Ġváº§n": 8828,
      "ĠPu": 8829,
      "EG": 8830,
      "Ġcarbon": 8831,
      "PV": 8832,
      "Ra": 8833,
      "ĠnhÃ©t": 8834,
      "ĠVir": 8835,
      "khá»§ng": 8836,
      "doc": 8837,
      "Äĳá»ĵng": 8838,
      "exus": 8839,
      "=>": 8840,
      "ĠgÃło": 8841,
      "ĠTÃĤM": 8842,
      "Ġpar": 8843,
      "ĠTW": 8844,
      "ating": 8845,
      "Ġxui": 8846,
      "Ġ240": 8847,
      "Ġag": 8848,
      "ĠSar": 8849,
      "trÃªn": 8850,
      "ĠKáº¾": 8851,
      "ĠUE": 8852,
      "TOP": 8853,
      "ĠNap": 8854,
      "ĠIphone": 8855,
      "bar": 8856,
      "Ġsearch": 8857,
      "ĠÄĲá»ĴNG": 8858,
      "Ġblockchain": 8859,
      "Ġtt": 8860,
      "ĠVÄĲQG": 8861,
      "To": 8862,
      "Ġwe": 8863,
      "ĠRobert": 8864,
      "ĠGháº¿": 8865,
      "ĠNe": 8866,
      "ĠAFF": 8867,
      "On": 8868,
      "ĠKINH": 8869,
      "ĠâĢĿ": 8870,
      "ĠXE": 8871,
      "ĠCÃ¡nh": 8872,
      "Ġsáº£o": 8873,
      "Ġper": 8874,
      "Ġhá»ħ": 8875,
      "Nháº¯c": 8876,
      "ĠBÃģO": 8877,
      "Tok": 8878,
      "ĠRanh": 8879,
      "2000": 8880,
      "Ġdc": 8881,
      "ĠRec": 8882,
      "Há»ĵng": 8883,
      "ĠThÃ¡c": 8884,
      "ĠHarry": 8885,
      "NET": 8886,
      "Æ°á»Ľu": 8887,
      "ĠURL": 8888,
      "iana": 8889,
      "láº§n": 8890,
      "ĠvÃ£n": 8891,
      "ĠPVC": 8892,
      "Tuáº§n": 8893,
      "ĠLÃ²ng": 8894,
      "asy": 8895,
      "įå": 8896,
      "gov": 8897,
      "táº¡i": 8898,
      "ĠÄĳáº«m": 8899,
      "ju": 8900,
      "çļ": 8901,
      "ĠCháº¥n": 8902,
      "Ġcity": 8903,
      "ĠMer": 8904,
      "ÄĲau": 8905,
      "itor": 8906,
      "Æ°Æ¡c": 8907,
      "ĠWon": 8908,
      "SP": 8909,
      "LÃ£o": 8910,
      "188": 8911,
      "Fanpage": 8912,
      "Nga": 8913,
      "ĠÄĲoáº¡n": 8914,
      "ĠRen": 8915,
      "ĠHen": 8916,
      "ĠVietcombank": 8917,
      "ĠHá»Ĵ": 8918,
      "ĠXÆ°á»Łng": 8919,
      "ChÄĥm": 8920,
      "ĠmÃªnh": 8921,
      "ĠPle": 8922,
      "Ġworld": 8923,
      "ppo": 8924,
      "issan": 8925,
      "HA": 8926,
      "Ġchoi": 8927,
      "0000": 8928,
      "Download": 8929,
      "TÃ´": 8930,
      "ule": 8931,
      "yle": 8932,
      "umber": 8933,
      "ĠPalace": 8934,
      "Ġpage": 8935,
      "ĠMitsubishi": 8936,
      "Ġwork": 8937,
      "Ġtáº¯n": 8938,
      "ĠrÆ¡m": 8939,
      "acy": 8940,
      "ĠxiÃªn": 8941,
      "ĠWater": 8942,
      "OO": 8943,
      "tis": 8944,
      "ĠhÃ¡n": 8945,
      "ĠtrÃ³i": 8946,
      "Ġthá»Ńa": 8947,
      "Ġkhuynh": 8948,
      "care": 8949,
      "rit": 8950,
      "Ġtháº³m": 8951,
      "Ġhá»ĳc": 8952,
      "ĠEsp": 8953,
      "ures": 8954,
      "Ġ101": 8955,
      "Ġchap": 8956,
      "ĠBÃĮNH": 8957,
      "ĠVAT": 8958,
      "ĠShar": 8959,
      "ĠcháºŃp": 8960,
      "ĠNho": 8961,
      "Tháº»": 8962,
      "ĠÎ": 8963,
      "ĠMunich": 8964,
      "now": 8965,
      "ĠTang": 8966,
      "ĠXII": 8967,
      "axi": 8968,
      "ĠFrank": 8969,
      "CÃł": 8970,
      "ĠThÃ©p": 8971,
      "ĠsÃ´": 8972,
      "isco": 8973,
      "ĠTak": 8974,
      "Ġláº½o": 8975,
      "ĠHT": 8976,
      "ĠGuard": 8977,
      "],": 8978,
      "Ġbá»«a": 8979,
      "ĠGÃ¡i": 8980,
      "ĠOk": 8981,
      "Read": 8982,
      "Vui": 8983,
      "Ġ93": 8984,
      "ikes": 8985,
      "Cá»ķng": 8986,
      "XD": 8987,
      "Ġtrá»ı": 8988,
      "ĠMá»ĩnh": 8989,
      "ience": 8990,
      "ĠCáº¯t": 8991,
      "ĠCÆł": 8992,
      "ĠOld": 8993,
      "Ġthung": 8994,
      "XB": 8995,
      "nik": 8996,
      "ĠViv": 8997,
      "Ġlist": 8998,
      "Ġbá»Ľi": 8999,
      "ashion": 9000,
      "SS": 9001,
      "ÑĢ": 9002,
      "Ġháº¡m": 9003,
      "ĠBá»įn": 9004,
      "Iá»ĤN": 9005,
      "ortmund": 9006,
      "Ġdecal": 9007,
      "Ġ1800": 9008,
      "%).": 9009,
      "cent": 9010,
      "ĠvÃ¢ng": 9011,
      "ookie": 9012,
      "Ġnáº¯n": 9013,
      "ĠVÄ©": 9014,
      "Ġtiep": 9015,
      "ĠÄĲÆ°Æ¡ng": 9016,
      "ĠTIáº¾": 9017,
      "ĠBas": 9018,
      "ĠTá»ģ": 9019,
      "ental": 9020,
      "Ġbit": 9021,
      "ĠMak": 9022,
      "ĠArab": 9023,
      "ĠvÆ¡i": 9024,
      "Ġneo": 9025,
      "áº¢M": 9026,
      "TrÃł": 9027,
      "pháº§n": 9028,
      "ĠKhung": 9029,
      "dotel": 9030,
      "ĠGiá»įng": 9031,
      "liÃªn": 9032,
      "Ġmat": 9033,
      "oma": 9034,
      "Ġngáº¡t": 9035,
      "ĠLáº¡nh": 9036,
      "ĠChÃ¡u": 9037,
      "Ġword": 9038,
      "aga": 9039,
      "ĠDesign": 9040,
      "Â©": 9041,
      "ĠFA": 9042,
      "Share": 9043,
      "Ġdien": 9044,
      "uke": 9045,
      "ĠTáº¾": 9046,
      "ĠhÃ²m": 9047,
      "Ġquai": 9048,
      "ĠnÃ£": 9049,
      "ĠTe": 9050,
      "ĠÃįt": 9051,
      "ategor": 9052,
      "Ġmá»įt": 9053,
      "ĠDVD": 9054,
      "Sáº½": 9055,
      "Ġ1998": 9056,
      "á»¢": 9057,
      "2023": 9058,
      "Diá»ĩp": 9059,
      "110": 9060,
      "tÄĥng": 9061,
      "Ġhydro": 9062,
      "ights": 9063,
      "tuáº§n": 9064,
      "?.": 9065,
      "Ġone": 9066,
      "Ġnao": 9067,
      "ĠBon": 9068,
      "ĠDub": 9069,
      "ĠSuz": 9070,
      "Hi": 9071,
      "ĠSáº¯t": 9072,
      "evelop": 9073,
      "ĠPep": 9074,
      "ĠKáº¾T": 9075,
      "SK": 9076,
      "Ġet": 9077,
      "Lá»Ľp": 9078,
      "ĠEX": 9079,
      "ni": 9080,
      "ĠÄĲá»īnh": 9081,
      "Ġroi": 9082,
      "ĠMÃ¨o": 9083,
      "Ġbiáº¿u": 9084,
      "âľĶ": 9085,
      "zi": 9086,
      "ĠTRUNG": 9087,
      "ATO": 9088,
      "ĠBÃģN": 9089,
      "onic": 9090,
      "ĠDá»ĬCH": 9091,
      "ĠHuáº¥n": 9092,
      "moi": 9093,
      "Ġá»©": 9094,
      "ĠBor": 9095,
      "ĠLab": 9096,
      "ĠGiáº£ng": 9097,
      "ution": 9098,
      "ĠCÄĲV": 9099,
      "ĠHappy": 9100,
      "Ġ777": 9101,
      "ilm": 9102,
      "Viáº¿t": 9103,
      "Ngoáº¡i": 9104,
      "ify": 9105,
      "ĤN": 9106,
      "ĠvÃ¹i": 9107,
      "Previous": 9108,
      "Ġlá»ĵi": 9109,
      "ĠBol": 9110,
      "ient": 9111,
      "ĠthÃł": 9112,
      "ĠMTV": 9113,
      "ĠphÃ¡ch": 9114,
      "ĠGiÃ³": 9115,
      "ĠThang": 9116,
      "ĠItaly": 9117,
      "tien": 9118,
      "PTNT": 9119,
      "Æ¯á»ļNG": 9120,
      "Cá»¥c": 9121,
      "ĠÄĳÃ´n": 9122,
      "chá»§": 9123,
      "real": 9124,
      "?!": 9125,
      "ĠNÆ¯á»ļC": 9126,
      "Ãģp": 9127,
      "ĠPHÃĴNG": 9128,
      "witch": 9129,
      "ĠWilli": 9130,
      "!!!!": 9131,
      "ĠvÃµng": 9132,
      "áº¸P": 9133,
      "ĠPHÃģT": 9134,
      "ĠCua": 9135,
      "ĠKha": 9136,
      "Ghi": 9137,
      "pot": 9138,
      "Tháº§n": 9139,
      "RiÃªng": 9140,
      "Ġtiá»ĩt": 9141,
      "Ġhd": 9142,
      "Ġchan": 9143,
      "Ġcá»Ļi": 9144,
      "ĠNhá»ı": 9145,
      "UYá»ĤN": 9146,
      "ThÃ¢n": 9147,
      "SE": 9148,
      "ĠThá»Ľi": 9149,
      "ĠCuba": 9150,
      "ĠNav": 9151,
      "á»İ": 9152,
      "ĠChiá»ĥu": 9153,
      "icester": 9154,
      "Ġ115": 9155,
      "ĠLouis": 9156,
      "Ġ1997": 9157,
      "Ġsite": 9158,
      "Comment": 9159,
      "cow": 9160,
      "ged": 9161,
      "ĠCá»Ķ": 9162,
      "esl": 9163,
      "TTXVN": 9164,
      "Ġcuoc": 9165,
      "AE": 9166,
      "dá»±": 9167,
      "ĠVÄĲV": 9168,
      "ĠliÃªu": 9169,
      "ĠmÆ°á»Ľt": 9170,
      "ĠNghiá»ĩm": 9171,
      "Ġnguoi": 9172,
      "organ": 9173,
      "ĠrÃªu": 9174,
      "Ġráº©y": 9175,
      "ĠVIÃĬN": 9176,
      "THÃĶNG": 9177,
      "Ġ750": 9178,
      "Ġmá»įng": 9179,
      "ĠPremium": 9180,
      "ĠBá»ĳn": 9181,
      "khu": 9182,
      "KÃ¨o": 9183,
      "nhat": 9184,
      "ĠAh": 9185,
      "made": 9186,
      "Ġbung": 9187,
      "Ġyoutube": 9188,
      "xa": 9189,
      "ĠTHI": 9190,
      "ĠVá»ĳn": 9191,
      "Ġxáº©y": 9192,
      "ĠnÃ³c": 9193,
      "247": 9194,
      "Gháº¿": 9195,
      "ĠsÃ³i": 9196,
      "Ġráº§m": 9197,
      "Ġ1080": 9198,
      "2004": 9199,
      "ĠNGAY": 9200,
      "ĠMotor": 9201,
      "Ġol": 9202,
      "ĠÄĳÃ²": 9203,
      "ä¸Ń": 9204,
      "ĠNáº¥u": 9205,
      "Thá»ĭt": 9206,
      "ĠFanpage": 9207,
      "Ġ1995": 9208,
      "bat": 9209,
      "Êľ": 9210,
      "ĠÄĲáº³ng": 9211,
      "ĠSev": 9212,
      "admin": 9213,
      "ĠmÃ¨": 9214,
      "ĠPok": 9215,
      "nha": 9216,
      "ĠGiÃły": 9217,
      "Ġ105": 9218,
      "ĠNá»ķ": 9219,
      "SÃ¢n": 9220,
      "Ġgang": 9221,
      "ibook": 9222,
      "cript": 9223,
      "Ġmiá»ĩt": 9224,
      "ĠÃģn": 9225,
      "Ġserum": 9226,
      "ĠBÆ°u": 9227,
      "ÆłI": 9228,
      "ĠÄĳá»ĭt": 9229,
      "Báº¿p": 9230,
      "?âĢĿ": 9231,
      "Há»£p": 9232,
      "Mai": 9233,
      "Ġquáº¥t": 9234,
      "ĠChá»ĵng": 9235,
      "entine": 9236,
      "ĠcÄĥm": 9237,
      "Biáº¿t": 9238,
      "For": 9239,
      "ĠHÃĢNH": 9240,
      "ĠBáº¢O": 9241,
      "ï¼ī": 9242,
      "ĠYoo": 9243,
      "ichi": 9244,
      "ĠGrab": 9245,
      "Hoáº·c": 9246,
      "vest": 9247,
      "Ġliáº¿m": 9248,
      "Ġkhiáº¿m": 9249,
      "ĠClick": 9250,
      "ĠSnap": 9251,
      "tÃªn": 9252,
      "ĠÄĲáº¯c": 9253,
      "allet": 9254,
      "ĠTá»Ķ": 9255,
      "ĠRu": 9256,
      "TrÆ°Æ¡ng": 9257,
      "akh": 9258,
      "ĠNháº¥n": 9259,
      "Ġcá»¥t": 9260,
      "ĠDáº¡y": 9261,
      "ĠRáºŃp": 9262,
      "Ġ.\"": 9263,
      "KD": 9264,
      "ĠFe": 9265,
      "ski": 9266,
      "ĠAgr": 9267,
      "Nha": 9268,
      "ency": 9269,
      "Ġrem": 9270,
      "ĠCá»±": 9271,
      "ĠÄĲáº§m": 9272,
      "Khuyáº¿n": 9273,
      "ĠHU": 9274,
      "ĠSung": 9275,
      "apixel": 9276,
      "ized": 9277,
      "Ġte": 9278,
      "Ġnano": 9279,
      "ĠPac": 9280,
      "atus": 9281,
      "aland": 9282,
      "Ġentry": 9283,
      "shi": 9284,
      "vu": 9285,
      "ĠBÃ¨": 9286,
      "ĠMid": 9287,
      "iller": 9288,
      "Fone": 9289,
      "ĠtÃ©": 9290,
      "Ġline": 9291,
      "ĠTÃł": 9292,
      "ĠNext": 9293,
      "ĠSL": 9294,
      "rogen": 9295,
      "rÃ´": 9296,
      "Ġcháº¯t": 9297,
      "Ġnáº¡o": 9298,
      "ette": 9299,
      "ĠHyun": 9300,
      "ĠTal": 9301,
      "ĠSMS": 9302,
      "ĠTá»µ": 9303,
      "ĠcafÃ©": 9304,
      "ÃĪ": 9305,
      "áº°": 9306,
      "ĠthÃ¢u": 9307,
      "Chá»©c": 9308,
      "ĠDigital": 9309,
      "Ġhá»©c": 9310,
      "ĠSGK": 9311,
      "ĠClass": 9312,
      "ĠBusiness": 9313,
      "ĠVnExpress": 9314,
      "Ġname": 9315,
      "ĠMach": 9316,
      "gio": 9317,
      "kn": 9318,
      "Ġtoáº£": 9319,
      "Ġtoa": 9320,
      "ĠJoe": 9321,
      "ĠSir": 9322,
      "Ġluyáº¿n": 9323,
      "ikvision": 9324,
      "Ġ170": 9325,
      "ĠNeymar": 9326,
      "ĠHá»§y": 9327,
      "SO": 9328,
      "izen": 9329,
      "ĠSá»°": 9330,
      "umin": 9331,
      "ĠBXH": 9332,
      "ulin": 9333,
      "Ġmáº©u": 9334,
      "ĠDÃłi": 9335,
      "ĠquÃ½t": 9336,
      "cÆ¡": 9337,
      "ĠlÄĥm": 9338,
      "ENT": 9339,
      "field": 9340,
      "ĠtÆ¡i": 9341,
      "ĠAz": 9342,
      "ĠvÃ¡ng": 9343,
      "rect": 9344,
      "Ġ304": 9345,
      "Ġthen": 9346,
      "ense": 9347,
      "ĠBrand": 9348,
      "ĠÄĳá»±c": 9349,
      "ĠBack": 9350,
      "ibo": 9351,
      "Táº§n": 9352,
      "blog": 9353,
      "OK": 9354,
      "thong": 9355,
      "ĠMao": 9356,
      "Ġ1992": 9357,
      "ĠÆ¡": 9358,
      "ĠphÃłm": 9359,
      "ĠSuy": 9360,
      "Ġkhuáº¿ch": 9361,
      "Ġhomestay": 9362,
      "Cont": 9363,
      "Ġbon": 9364,
      "ĠTab": 9365,
      "Ġáº¿ch": 9366,
      "Ġgáº¯m": 9367,
      "giáº£i": 9368,
      "mÃ¬nh": 9369,
      "ĠTuÃ¢n": 9370,
      "ĠXinh": 9371,
      "ĠNail": 9372,
      "Dáº¡": 9373,
      "Ġnick": 9374,
      "Ġtáº»": 9375,
      "ĠPat": 9376,
      "ĠDortmund": 9377,
      "ĠÆ°Æ¡m": 9378,
      "ĠDU": 9379,
      "ĠtrÆ°á»£ng": 9380,
      "cal": 9381,
      "ĠxoÃ¡": 9382,
      "ĠGáº·p": 9383,
      "ÃļC": 9384,
      "Ġgiun": 9385,
      "ito": 9386,
      "Ġav": 9387,
      "ĠmÃ©o": 9388,
      "Ġcotton": 9389,
      "ĠANH": 9390,
      "ĠBIDV": 9391,
      "ĠServer": 9392,
      "HáºŃu": 9393,
      "ĠTiáº¿u": 9394,
      "ĠMoney": 9395,
      "ĠCare": 9396,
      "face": 9397,
      "ĠNÃł": 9398,
      "Ġtrá»£n": 9399,
      "Ġpc": 9400,
      "ĠNhá»±a": 9401,
      "Quang": 9402,
      "DÃ¢y": 9403,
      "Ð¾Ð": 9404,
      "ĠCTCP": 9405,
      "ĠsÃ²": 9406,
      "thá»Ŀi": 9407,
      "Google": 9408,
      "Ġhas": 9409,
      "ĠCoc": 9410,
      "350": 9411,
      "á»ĮN": 9412,
      "Ġvar": 9413,
      "eld": 9414,
      "ĠWat": 9415,
      "Ġ94": 9416,
      "ĠCHá»¦": 9417,
      "GÄĲ": 9418,
      "aro": 9419,
      "PhÆ°á»Ŀng": 9420,
      "Ġ1996": 9421,
      "Ġáº¨m": 9422,
      "Ġsinc": 9423,
      "ĠABS": 9424,
      "ĠFre": 9425,
      "LuÃ´n": 9426,
      "VÃ©": 9427,
      "Ġngá»ı": 9428,
      "ĠÄĲam": 9429,
      "HP": 9430,
      "ĠÄĳá»ĳn": 9431,
      "ĠngÃ¡ch": 9432,
      "Táº§ng": 9433,
      "ĠtÃ²i": 9434,
      "ĠrÃªn": 9435,
      "ask": 9436,
      "ghan": 9437,
      "âĺħ": 9438,
      "yÃªu": 9439,
      "ĠTrá»Ł": 9440,
      "ily": 9441,
      "Ġhuá»·": 9442,
      "Ġ320": 9443,
      "ĠlÃºng": 9444,
      "ĠquÄĥng": 9445,
      "ĠSel": 9446,
      "\"?": 9447,
      "Tá»ĳt": 9448,
      "ĠMoon": 9449,
      "dep": 9450,
      "dau": 9451,
      "ĠbÃ¨o": 9452,
      "ĠMall": 9453,
      "ĠSaf": 9454,
      "ĠRau": 9455,
      "EE": 9456,
      "SION": 9457,
      "TrÃ¬nh": 9458,
      "Ġ108": 9459,
      "Giá»¯a": 9460,
      "Cá»ķ": 9461,
      "ĠCU": 9462,
      "Triá»ĥn": 9463,
      "Ġvin": 9464,
      "ĠnhÃ¡": 9465,
      "ĠrÆ°á»¡i": 9466,
      "BV": 9467,
      "ĠnhÄ©": 9468,
      "ĠCáº©n": 9469,
      "ars": 9470,
      "Ġphao": 9471,
      "ĠCF": 9472,
      "...)": 9473,
      "Ġmel": 9474,
      "ĠEc": 9475,
      "ĠÄĲÃ³ng": 9476,
      "ĠFDI": 9477,
      "ĠYang": 9478,
      "ĠUltra": 9479,
      "Ġháº¥u": 9480,
      "Ġnem": 9481,
      "ĠDah": 9482,
      "ffe": 9483,
      "Ġbox": 9484,
      "Ġsá»ĩt": 9485,
      "ĠMoscow": 9486,
      "mat": 9487,
      "ĠÄĲáº¸P": 9488,
      "ĠRáº¡ch": 9489,
      "exas": 9490,
      "gram": 9491,
      "ather": 9492,
      "ĠThÃ¢m": 9493,
      "ĠTRANG": 9494,
      "Lá»¥c": 9495,
      "ĠchÃŃch": 9496,
      "ĠRap": 9497,
      "izza": 9498,
      "ĠVene": 9499,
      "ĠVKS": 9500,
      "ĠPen": 9501,
      "oul": 9502,
      "ĠÃĲá»©c": 9503,
      "amily": 9504,
      "áº¤n": 9505,
      "ĠAqua": 9506,
      "Háº¡n": 9507,
      "Ġ000": 9508,
      "thÃ´ng": 9509,
      "QU": 9510,
      "Ġgiá»ģng": 9511,
      "pm": 9512,
      "ĠTáºŃn": 9513,
      "ĠSmartphone": 9514,
      "ĠDÃłnh": 9515,
      "ĠHollywood": 9516,
      "jo": 9517,
      "ĠBat": 9518,
      "ĠKhiÃªm": 9519,
      "opp": 9520,
      "ĠNHNN": 9521,
      "Ħ¢": 9522,
      "ĠKai": 9523,
      "Ġhit": 9524,
      "Ġsun": 9525,
      "ĠhoÃ¡n": 9526,
      "ulf": 9527,
      "[/": 9528,
      "æĸ": 9529,
      "thÆ°á»Ŀng": 9530,
      "ĠthÃ©t": 9531,
      "Ġ789": 9532,
      "TPO": 9533,
      "Ġsá»§ng": 9534,
      "ĠVÆ°á»£ng": 9535,
      "áºłCH": 9536,
      "ĠTriáº¿t": 9537,
      "aste": 9538,
      "ï¼Ī": 9539,
      "Ġháº¯t": 9540,
      "ĠVictoria": 9541,
      "Cá»Ļng": 9542,
      "Äĳáº·c": 9543,
      "ÃĤm": 9544,
      "ĠQuÃ¡ch": 9545,
      "Ġanime": 9546,
      "ĠbÃºi": 9547,
      "ĠHoan": 9548,
      "Tiá»ĩn": 9549,
      "edan": 9550,
      "Ġ^^": 9551,
      "Ġnháºµn": 9552,
      "Ġdáº»": 9553,
      "orts": 9554,
      "ĠtÃ£": 9555,
      "Ġsinch": 9556,
      "Ġray": 9557,
      "ĠChiáº¿t": 9558,
      "åĲį": 9559,
      "Ġconc": 9560,
      "ĠWikipedia": 9561,
      "hiá»ĩn": 9562,
      "Ġket": 9563,
      "ĠtrÆ°á»Ľng": 9564,
      "ĠBáº¢N": 9565,
      "ĠAut": 9566,
      "elle": 9567,
      "ĠVo": 9568,
      "Nháº¡c": 9569,
      "ÃģNH": 9570,
      "ĠAlibaba": 9571,
      "ĠTÃło": 9572,
      "Ġblack": 9573,
      "ĠLib": 9574,
      "á»ĲT": 9575,
      "vis": 9576,
      "ĠDom": 9577,
      "Ġjack": 9578,
      "Thá»ĳng": 9579,
      "ĠTikibook": 9580,
      "TIN": 9581,
      "ereum": 9582,
      "ĠTD": 9583,
      "ĠTitan": 9584,
      "áºªN": 9585,
      "ĠVNPT": 9586,
      "ĠStart": 9587,
      "OH": 9588,
      "ĠdÃ¬m": 9589,
      "Ġmá»¥": 9590,
      "Äĳáº§u": 9591,
      "ĠSunshine": 9592,
      "ĠCÃ¹": 9593,
      "ĠSex": 9594,
      "Ġrou": 9595,
      "Trá»įng": 9596,
      "Ġsum": 9597,
      "Ġngá»«": 9598,
      "UYá»ĦN": 9599,
      "ĠSuzuki": 9600,
      "ĠApr": 9601,
      "ĠCHáº¤T": 9602,
      "attle": 9603,
      "ĠAudio": 9604,
      "Ġguitar": 9605,
      "Hiá»ĥu": 9606,
      "Ġtráº§u": 9607,
      "Ġxáº¥p": 9608,
      "ĠRod": 9609,
      "Ġlivestream": 9610,
      "Há»Ļp": 9611,
      "ĠChim": 9612,
      "phat": 9613,
      "ĠSÆ°Æ¡ng": 9614,
      "ism": 9615,
      "achi": 9616,
      "ĠchÃ³t": 9617,
      "ĠRead": 9618,
      "Ġbr": 9619,
      "ĠPak": 9620,
      "TÃ²a": 9621,
      "ĠÃ±": 9622,
      "ĠCloud": 9623,
      "ĠLot": 9624,
      "Ġnai": 9625,
      "ĠTX": 9626,
      "mit": 9627,
      "ĠPre": 9628,
      "Ġlá»£p": 9629,
      "ĠRoma": 9630,
      "ĠTem": 9631,
      "ĠVay": 9632,
      "iao": 9633,
      "yu": 9634,
      "ĠNob": 9635,
      "ĠMá»ĺT": 9636,
      "Ġdel": 9637,
      "ĠBN": 9638,
[...]
